<pad>	0
<s>	0
</s>	0
<unk>	0
an	-0
ar	-1
as	-2
▁s	-3
▁j	-4
at	-5
▁d	-6
▁u	-7
▁l	-8
▁c	-9
ac	-10
▁e	-11
qu	-12
os	-13
am	-14
▁p	-15
▁m	-16
ak	-17
▁t	-18
ap	-19
jj	-20
▁de	-21
▁a	-22
er	-23
ti	-24
▁y	-25
es	-26
en	-27
is	-28
on	-29
ay	-30
in	-31
wa	-32
or	-33
un	-34
▁n	-35
▁qu	-36
ir	-37
▁h	-38
▁ju	-39
ta	-40
re	-41
▁que	-42
▁el	-43
it	-44
us	-45
▁uc	-46
▁en	-47
al	-48
ad	-49
ach	-50
▁uk	-51
na	-52
▁se	-53
ra	-54
te	-55
▁es	-56
amp	-57
ch	-58
▁la	-59
▁k	-60
aqu	-61
iw	-62
anac	-63
▁ch	-64
▁di	-65
ip	-66
ur	-67
qh	-68
▁los	-69
ajj	-70
anak	-71
añ	-72
▁jan	-73
do	-74
ax	-75
▁v	-76
asti	-77
el	-78
ab	-79
▁su	-80
aw	-81
om	-82
▁al	-83
aru	-84
▁re	-85
▁con	-86
il	-87
äna	-88
▁"	-89
▁jup	-90
to	-91
im	-92
▁dios	-93
▁mar	-94
▁f	-95
asa	-96
sti	-97
jja	-98
ci	-99
▁b	-100
▁nay	-101
▁wa	-102
än	-103
ro	-104
araqu	-105
▁o	-106
▁is	-107
aq	-108
▁par	-109
▁to	-110
▁ar	-111
▁por	-112
▁lo	-113
▁no	-114
uy	-115
▁-	-116
ien	-117
▁jum	-118
inak	-119
sa	-120
▁del	-121
▁uñ	-122
ón	-123
ani	-124
apjj	-125
▁g	-126
▁le	-127
án	-128
▁señ	-129
▁cu	-130
apx	-131
atit	-132
ier	-133
▁señor	-134
▁w	-135
ati	-136
ant	-137
▁tu	-138
id	-139
ue	-140
ía	-141
▁tatit	-142
▁com	-143
▁rey	-144
ado	-145
▁sar	-146
qham	-147
ol	-148
iñ	-149
em	-150
atsti	-151
tr	-152
▁jak	-153
▁lur	-154
ampi	-155
▁ap	-156
▁uqham	-157
▁per	-158
▁am	-159
ma	-160
res	-161
▁un	-162
▁las	-163
▁ll	-164
▁hi	-165
rael	-166
iwa	-167
jo	-168
ojj	-169
▁¡	-170
▁me	-171
▁mä	-172
ejj	-173
▁para	-174
▁uca	-175
▁wal	-176
▁man	-177
iti	-178
lo	-179
▁ut	-180
▁israel	-181
▁uka	-182
▁ac	-183
ri	-184
▁sus	-185
▁des	-186
atak	-187
de	-188
▁as	-189
▁si	-190
di	-191
▁mark	-192
ataqu	-193
änwa	-194
én	-195
▁qh	-196
▁jaq	-197
▁janiw	-198
▁hab	-199
▁cun	-200
go	-201
arak	-202
inac	-203
ata	-204
▁may	-205
uer	-206
los	-207
ampis	-208
iy	-209
▁an	-210
cu	-211
▁tod	-212
ca	-213
ïn	-214
arus	-215
▁mun	-216
▁us	-217
jam	-218
ás	-219
aruw	-220
▁ent	-221
▁or	-222
ham	-223
tas	-224
qui	-225
▁kh	-226
ob	-227
des	-228
ut	-229
aron	-230
▁como	-231
pach	-232
que	-233
▁jach	-234
all	-235
äw	-236
▁yo	-237
▁lu	-238
▁¿	-239
."	-240
▁mis	-241
▁mi	-242
▁pero	-243
ías	-244
ank	-245
ïna	-246
▁jiw	-247
▁ph	-248
uw	-249
dad	-250
apach	-251
ues	-252
▁uñj	-253
▁jes	-254
▁chach	-255
ïnwa	-256
ando	-257
ec	-258
▁marc	-259
▁est	-260
▁in	-261
apa	-262
▁tak	-263
asip	-264
arojj	-265
▁q	-266
▁kun	-267
end	-268
▁chi	-269
ll	-270
um	-271
atä	-272
enac	-273
av	-274
▁ji	-275
tedes	-276
arac	-277
▁jil	-278
ix	-279
▁sac	-280
ia	-281
gu	-282
kh	-283
▁les	-284
▁pro	-285
▁ukham	-286
ada	-287
▁ustedes	-288
▁ser	-289
▁ucatsti	-290
▁utj	-291
ente	-292
ataqui	-293
ajja	-294
▁pue	-295
asin	-296
▁yati	-297
emp	-298
▁sasa	-299
sasa	-300
ana	-301
▁waw	-302
▁ha	-303
▁war	-304
asiñ	-305
▁una	-306
äta	-307
▁take	-308
ïr	-309
omb	-310
▁sal	-311
arux	-312
atap	-313
bi	-314
▁taq	-315
▁te	-316
se	-317
él	-318
añap	-319
et	-320
▁jupanak	-321
ino	-322
up	-323
xa	-324
ät	-325
tes	-326
io	-327
ki	-328
chh	-329
▁todo	-330
pa	-331
tar	-332
▁jer	-333
▁wali	-334
▁ur	-335
ba	-336
▁jac	-337
raq	-338
▁cuando	-339
és	-340
onc	-341
▁esta	-342
▁ni	-343
unak	-344
▁él	-345
▁jakenac	-346
▁dijo	-347
▁lle	-348
▁mo	-349
▁ukatsti	-350
▁todos	-351
▁jupanac	-352
▁chur	-353
jos	-354
tejj	-355
anacap	-356
▁pr	-357
▁ucanac	-358
ita	-359
▁esp	-360
▁ci	-361
▁mu	-362
atejj	-363
co	-364
tra	-365
▁ellos	-366
▁jaqinak	-367
araqui	-368
ran	-369
ed	-370
arusti	-371
ist	-372
la	-373
▁sat	-374
▁he	-375
iri	-376
ek	-377
aci	-378
unac	-379
jer	-380
gar	-381
▁ab	-382
▁porque	-383
▁pur	-384
▁ak	-385
▁jud	-386
ux	-387
tos	-388
mo	-389
▁uqhamarac	-390
▁im	-391
▁juch	-392
▁ir	-393
▁hac	-394
▁r	-395
tix	-396
▁tam	-397
iraqu	-398
pan	-399
fi	-400
avid	-401
ados	-402
itu	-403
az	-404
▁ucampis	-405
▁lay	-406
▁ist	-407
▁ay	-408
▁jumanac	-409
▁david	-410
▁has	-411
▁ars	-412
cho	-413
erdo	-414
akh	-415
uq	-416
pu	-417
▁sacerdo	-418
od	-419
ará	-420
tros	-421
▁pueb	-422
aqh	-423
▁th	-424
le	-425
▁vi	-426
anakap	-427
irinak	-428
▁aw	-429
onces	-430
▁jumanak	-431
▁tier	-432
▁hijo	-433
man	-434
isti	-435
tan	-436
▁entonces	-437
nak	-438
tro	-439
jan	-440
oy	-441
▁mal	-442
▁fue	-443
▁taqi	-444
ieron	-445
▁cor	-446
▁car	-447
za	-448
onac	-449
▁suma	-450
cia	-451
▁uñt	-452
ían	-453
▁nos	-454
usal	-455
isc	-456
▁chiq	-457
▁warm	-458
atix	-459
▁ucat	-460
▁así	-461
▁tierra	-462
▁pues	-463
▁sol	-464
▁israelit	-465
bién	-466
▁res	-467
▁sob	-468
ve	-469
ja	-470
▁jerusal	-471
▁homb	-472
kt	-473
▁ten	-474
naq	-475
▁uraq	-476
▁mois	-477
▁parl	-478
▁mayn	-479
▁había	-480
▁también	-481
▁pueblo	-482
▁jichh	-483
ill	-484
▁fuer	-485
▁orak	-486
▁chek	-487
ió	-488
▁tun	-489
uc	-490
den	-491
unt	-492
▁ti	-493
atay	-494
äm	-495
▁jesus	-496
sar	-497
ataki	-498
ones	-499
▁amuy	-500
▁kat	-501
▁sin	-502
▁ukampis	-503
quir	-504
▁her	-505
ig	-506
▁entre	-507
▁hijos	-508
▁prof	-509
▁ukat	-510
▁chuy	-511
▁judá	-512
pi	-513
▁más	-514
▁yat	-515
▁pas	-516
▁at	-517
▁tay	-518
apxäna	-519
▁lev	-520
▁ver	-521
▁jal	-522
ama	-523
▁of	-524
▁eg	-525
vo	-526
▁tatitun	-527
ras	-528
udad	-529
▁sobre	-530
añch	-531
▁ciudad	-532
jäm	-533
me	-534
usti	-535
ida	-536
▁egip	-537
ka	-538
ipjj	-539
ús	-540
aws	-541
▁ukanak	-542
ini	-543
▁pod	-544
ampiw	-545
ten	-546
apk	-547
da	-548
▁este	-549
▁ñ	-550
tañ	-551
▁día	-552
▁contra	-553
rañ	-554
amar	-555
▁aj	-556
▁cat	-557
▁nayr	-558
ipx	-559
ib	-560
ce	-561
▁pal	-562
▁mí	-563
▁qull	-564
ez	-565
aya	-566
irak	-567
▁jerusalén	-568
▁esto	-569
▁hasta	-570
▁jesús	-571
▁jos	-572
▁cr	-573
tam	-574
ero	-575
▁all	-576
ido	-577
ante	-578
▁pad	-579
▁tú	-580
aba	-581
▁'	-582
▁diosan	-583
oll	-584
▁tuk	-585
▁sab	-586
▁ex	-587
▁jilïr	-588
axa	-589
▁caw	-590
▁temp	-591
▁tus	-592
▁cam	-593
ín	-594
araquïnwa	-595
▁esc	-596
▁tri	-597
anc	-598
▁dec	-599
▁chachan	-600
ina	-601
ic	-602
▁yatiy	-603
▁quien	-604
apar	-605
▁ad	-606
ayt	-607
▁qhiti	-608
no	-609
arán	-610
▁aca	-611
▁pus	-612
▁son	-613
▁pre	-614
änti	-615
apjjäna	-616
anto	-617
ver	-618
ún	-619
uk	-620
aman	-621
ipan	-622
xat	-623
apan	-624
ask	-625
▁uy	-626
▁tok	-627
▁ro	-628
▁gran	-629
▁tr	-630
zo	-631
pjj	-632
aré	-633
ga	-634
▁koll	-635
▁phu	-636
isiñ	-637
▁chuym	-638
par	-639
gr	-640
era	-641
▁pach	-642
apc	-643
ejja	-644
iste	-645
▁ucqh	-646
tir	-647
ito	-648
▁nues	-649
sma	-650
gun	-651
isto	-652
les	-653
▁nuw	-654
▁lurat	-655
▁qued	-656
▁cab	-657
eb	-658
onak	-659
gan	-660
awa	-661
▁ya	-662
hap	-663
▁llev	-664
asc	-665
▁viv	-666
▁sarak	-667
ales	-668
isa	-669
▁tayp	-670
isk	-671
▁está	-672
▁pres	-673
ación	-674
eros	-675
enta	-676
asipx	-677
▁lurañ	-678
▁sänwa	-679
antes	-680
emos	-681
▁vol	-682
▁muer	-683
anakax	-684
▁jo	-685
▁tien	-686
acht	-687
cio	-688
jjat	-689
▁sum	-690
pon	-691
▁ca	-692
▁jupasti	-693
tay	-694
▁templo	-695
▁tuc	-696
▁tuq	-697
▁aqu	-698
▁ven	-699
▁um	-700
ión	-701
▁sa	-702
asipjj	-703
▁han	-704
▁mismo	-705
▁wil	-706
▁ah	-707
ara	-708
ban	-709
▁nayan	-710
elo	-711
amos	-712
▁ben	-713
▁allí	-714
▁jay	-715
ïri	-716
araquïna	-717
▁padre	-718
▁ukkh	-719
anacajj	-720
ampar	-721
▁altar	-722
▁nin	-723
▁pa	-724
▁uyw	-725
atjja	-726
▁khiti	-727
irinac	-728
cun	-729
▁was	-730
▁hombre	-731
▁luq	-732
amti	-733
ankir	-734
▁gente	-735
piy	-736
▁ba	-737
ista	-738
▁mon	-739
ora	-740
eron	-741
▁egipto	-742
▁cos	-743
▁pec	-744
iru	-745
mp	-746
▁era	-747
eta	-748
rend	-749
▁mist	-750
▁dos	-751
pas	-752
▁iy	-753
atsa	-754
▁deb	-755
ento	-756
▁ucasti	-757
▁jut	-758
▁ante	-759
▁sayt	-760
▁ove	-761
▁rec	-762
idad	-763
▁añ	-764
▁muy	-765
esti	-766
atayna	-767
▁jiway	-768
itas	-769
▁iyaws	-770
ok	-771
pués	-772
▁hacer	-773
ie	-774
▁uqhamaraqui	-775
▁cunapach	-776
▁tatitur	-777
twa	-778
▁cawqu	-779
anakan	-780
úl	-781
▁ob	-782
ción	-783
▁pä	-784
▁lib	-785
▁laycu	-786
▁arunac	-787
▁sir	-788
▁ampar	-789
cha	-790
▁después	-791
las	-792
▁chh	-793
dos	-794
!"	-795
ayan	-796
▁manq	-797
▁san	-798
▁suti	-799
ul	-800
▁ter	-801
▁casa	-802
tawa	-803
arusa	-804
▁aka	-805
por	-806
anaca	-807
▁eso	-808
ér	-809
uel	-810
▁moisés	-811
▁toda	-812
▁reyin	-813
▁nayajj	-814
aniti	-815
▁dej	-816
▁tra	-817
▁arunak	-818
▁"¡	-819
▁je	-820
▁fueron	-821
▁tatitux	-822
▁pat	-823
▁layk	-824
▁uch	-825
cien	-826
▁cons	-827
aban	-828
▁qué	-829
▁desc	-830
amil	-831
▁lleg	-832
▁famil	-833
gel	-834
▁vida	-835
▁i	-836
▁lugar	-837
▁cas	-838
▁ley	-839
iraquiw	-840
uego	-841
dió	-842
▁bien	-843
▁moises	-844
ír	-845
▁tom	-846
▁mujer	-847
ud	-848
▁orden	-849
▁mat	-850
▁habl	-851
▁gr	-852
▁anim	-853
arjam	-854
▁trib	-855
▁-¿	-856
▁yuq	-857
▁herman	-858
▁llam	-859
oc	-860
▁todas	-861
▁kaw	-862
▁mank	-863
araquiw	-864
uch	-865
asis	-866
▁pon	-867
▁mant	-868
▁nayax	-869
▁yaqh	-870
▁será	-871
inakap	-872
▁yakh	-873
ores	-874
anacan	-875
anap	-876
▁jiwar	-877
▁estaba	-878
omp	-879
tat	-880
tó	-881
▁apan	-882
ter	-883
▁pl	-884
ientes	-885
▁"¿	-886
▁jupar	-887
▁nomb	-888
kat	-889
▁hizo	-890
äy	-891
▁ofrend	-892
▁ukasti	-893
▁enc	-894
▁kam	-895
▁jisc	-896
äwi	-897
ala	-898
otros	-899
▁awk	-900
▁medi	-901
rá	-902
añam	-903
▁cre	-904
▁cunjäm	-905
onde	-906
jas	-907
▁jacob	-908
ür	-909
▁palab	-910
▁ucapach	-911
ipun	-912
▁awqu	-913
quiti	-914
thap	-915
▁z	-916
▁marcan	-917
aych	-918
tras	-919
▁saúl	-920
▁camp	-921
▁walja	-922
▁yok	-923
kir	-924
araquï	-925
jjapjj	-926
▁ella	-927
▁irp	-928
?"	-929
aniwa	-930
anï	-931
▁nosotros	-932
ís	-933
ias	-934
▁yatich	-935
cas	-936
kam	-937
▁phuqh	-938
▁env	-939
ep	-940
uñ	-941
▁respon	-942
▁sacerdote	-943
encia	-944
▁uno	-945
▁jaw	-946
ub	-947
▁ucan	-948
▁donde	-949
▁nayar	-950
apxarak	-951
▁janirak	-952
▁luego	-953
▁sapa	-954
upaych	-955
cäna	-956
äk	-957
▁amuyt	-958
▁qhip	-959
▁naya	-960
▁yupaych	-961
asir	-962
▁fil	-963
▁cuna	-964
▁fr	-965
▁yanap	-966
aciones	-967
apxam	-968
▁tunca	-969
▁mand	-970
▁aru	-971
▁desde	-972
kun	-973
▁hombres	-974
px	-975
▁pi	-976
▁wak	-977
▁pho	-978
iente	-979
▁nayraq	-980
▁nayrak	-981
usa	-982
▁ped	-983
tru	-984
gún	-985
▁comp	-986
▁jik	-987
imp	-988
▁israelitas	-989
▁entr	-990
ete	-991
esta	-992
uar	-993
▁juc	-994
▁tatitojj	-995
▁ahora	-996
jum	-997
▁mil	-998
taxa	-999
rifi	-1000
chos	-1001
iento	-1002
▁sacrifi	-1003
▁mad	-1004
▁ach	-1005
▁uñis	-1006
▁tunka	-1007
▁diosajj	-1008
añapataqui	-1009
cat	-1010
anqh	-1011
ätam	-1012
iera	-1013
▁men	-1014
▁col	-1015
▁jupan	-1016
▁aquel	-1017
▁sino	-1018
ura	-1019
▁nombre	-1020
▁ese	-1021
▁apnaq	-1022
▁jiwas	-1023
▁nad	-1024
don	-1025
▁markan	-1026
▁ve	-1027
▁sarnak	-1028
▁yän	-1029
▁agu	-1030
aca	-1031
ios	-1032
mos	-1033
abil	-1034
▁hecho	-1035
▁solo	-1036
quis	-1037
▁sirv	-1038
añatak	-1039
▁tatitu	-1040
br	-1041
imsa	-1042
asaw	-1043
▁voy	-1044
▁ajay	-1045
▁juk	-1046
apat	-1047
▁marka	-1048
asïna	-1049
atäñ	-1050
▁taypin	-1051
can	-1052
abilon	-1053
▁luräw	-1054
▁cada	-1055
▁ej	-1056
▁sarnaq	-1057
▁reg	-1058
apjjam	-1059
▁apar	-1060
▁ukapach	-1061
▁hay	-1062
aj	-1063
▁medio	-1064
lor	-1065
▁decir	-1066
▁phokh	-1067
▁ajj	-1068
▁ax	-1069
anacam	-1070
empre	-1071
▁jupax	-1072
araquiwa	-1073
ayäna	-1074
tajja	-1075
▁tiemp	-1076
▁jun	-1077
ich	-1078
▁siempre	-1079
▁wiñ	-1080
unj	-1081
▁samar	-1082
rán	-1083
▁pun	-1084
▁nadie	-1085
▁descend	-1086
▁ukax	-1087
▁cristo	-1088
añataqui	-1089
▁jef	-1090
▁purin	-1091
▁días	-1092
▁vino	-1093
äma	-1094
▁jumanacajj	-1095
oz	-1096
▁reci	-1097
▁mes	-1098
▁ñanqh	-1099
▁babilon	-1100
▁fi	-1101
▁cunapachatejj	-1102
▁rein	-1103
▁janiraquiw	-1104
pacha	-1105
▁yatiñ	-1106
▁pachpa	-1107
eg	-1108
▁pan	-1109
ataw	-1110
▁sapjj	-1111
▁markanak	-1112
usis	-1113
▁wawanacap	-1114
▁mur	-1115
ent	-1116
apasti	-1117
pachan	-1118
apun	-1119
uen	-1120
cer	-1121
ío	-1122
▁soldad	-1123
ord	-1124
ierto	-1125
ram	-1126
▁ucajj	-1127
▁filiste	-1128
▁amt	-1129
▁nada	-1130
▁salom	-1131
▁tatituw	-1132
▁katuq	-1133
uyap	-1134
▁parte	-1135
▁jawir	-1136
▁ajjsar	-1137
fic	-1138
nay	-1139
érc	-1140
apax	-1141
si	-1142
ith	-1143
▁dicho	-1144
▁esa	-1145
▁mor	-1146
▁poder	-1147
▁coraz	-1148
▁otro	-1149
aña	-1150
▁escu	-1151
▁nayra	-1152
▁yakha	-1153
va	-1154
▁guer	-1155
itat	-1156
▁ucjj	-1157
▁cump	-1158
▁sam	-1159
▁mas	-1160
▁axsar	-1161
▁suy	-1162
ojja	-1163
▁khes	-1164
▁sier	-1165
▁lan	-1166
▁soy	-1167
▁ucampisa	-1168
iq	-1169
▁ejérc	-1170
uti	-1171
ankh	-1172
▁nuestro	-1173
zas	-1174
eti	-1175
▁delante	-1176
▁yaqha	-1177
▁tanto	-1178
▁país	-1179
▁ofre	-1180
▁abra	-1181
▁prim	-1182
amente	-1183
▁mut	-1184
ust	-1185
iruw	-1186
▁dio	-1187
▁ef	-1188
▁tres	-1189
araquini	-1190
ipk	-1191
▁cual	-1192
▁aqham	-1193
irá	-1194
▁jupajj	-1195
nos	-1196
▁sipan	-1197
äni	-1198
▁otros	-1199
▁wiñay	-1200
arse	-1201
▁espír	-1202
illq	-1203
▁comer	-1204
▁aun	-1205
pati	-1206
▁nayasti	-1207
cios	-1208
inacap	-1209
ven	-1210
xäna	-1211
ot	-1212
▁kunjäm	-1213
▁sap	-1214
▁juman	-1215
allk	-1216
▁qhis	-1217
▁profet	-1218
▁cin	-1219
atï	-1220
atan	-1221
▁corazón	-1222
▁jaws	-1223
▁arsut	-1224
▁ukhamat	-1225
▁-¡	-1226
▁reyix	-1227
qa	-1228
▁qillq	-1229
apawa	-1230
quiri	-1231
▁mano	-1232
ros	-1233
▁buen	-1234
▁jumanakax	-1235
▁atip	-1236
arón	-1237
▁años	-1238
▁kank	-1239
▁janirakiw	-1240
▁estaban	-1241
▁apnak	-1242
▁can	-1243
anakam	-1244
▁khespiy	-1245
▁camino	-1246
▁animal	-1247
▁enem	-1248
▁tant	-1249
adas	-1250
▁jic	-1251
igo	-1252
▁sigu	-1253
▁akham	-1254
ïs	-1255
isin	-1256
ampix	-1257
▁cal	-1258
▁diosax	-1259
▁ukhamarak	-1260
ué	-1261
▁volver	-1262
irán	-1263
▁marcanac	-1264
atakix	-1265
▁ucajja	-1266
▁yap	-1267
▁serv	-1268
▁dar	-1269
janiw	-1270
asinjja	-1271
▁hermanos	-1272
▁kuna	-1273
▁manos	-1274
▁muerte	-1275
eo	-1276
cän	-1277
ens	-1278
▁tiempo	-1279
▁fara	-1280
▁cuntejj	-1281
kän	-1282
xapx	-1283
asi	-1284
▁wila	-1285
▁oraken	-1286
rit	-1287
ell	-1288
▁espíritu	-1289
▁saraquïnwa	-1290
atawa	-1291
▁pab	-1292
▁layku	-1293
▁ovej	-1294
▁salv	-1295
▁cielo	-1296
impi	-1297
st	-1298
tado	-1299
▁cuer	-1300
▁ñankh	-1301
tal	-1302
äniwa	-1303
▁janch	-1304
▁habían	-1305
▁israelan	-1306
iraqui	-1307
▁estos	-1308
▁acer	-1309
▁way	-1310
▁jupanakax	-1311
▁ins	-1312
ipuniw	-1313
kiti	-1314
▁sis	-1315
▁jikxat	-1316
▁amor	-1317
asinsti	-1318
▁sea	-1319
▁habit	-1320
▁sacerdotes	-1321
▁reyejj	-1322
▁hum	-1323
▁catok	-1324
▁mutuy	-1325
▁hor	-1326
▁ciudades	-1327
añapataki	-1328
▁junto	-1329
señ	-1330
je	-1331
ätati	-1332
▁kunapach	-1333
ede	-1334
qué	-1335
atam	-1336
quiw	-1337
▁uqhama	-1338
▁ayn	-1339
anakar	-1340
erá	-1341
▁están	-1342
aran	-1343
▁algun	-1344
▁kut	-1345
xt	-1346
▁jam	-1347
▁naciones	-1348
tu	-1349
ientras	-1350
▁der	-1351
▁dur	-1352
▁uñacht	-1353
▁jupanacajj	-1354
cam	-1355
▁cut	-1356
nac	-1357
▁wasitat	-1358
▁pamp	-1359
▁llen	-1360
anza	-1361
jama	-1362
arás	-1363
▁agua	-1364
tasin	-1365
äwip	-1366
▁josué	-1367
▁imp	-1368
▁tar	-1369
▁qhispiy	-1370
▁respondió	-1371
idos	-1372
▁levant	-1373
▁jumar	-1374
▁uraqin	-1375
▁kamach	-1376
▁disc	-1377
tatit	-1378
pul	-1379
▁säna	-1380
▁puer	-1381
▁nayaw	-1382
▁ucjja	-1383
▁conf	-1384
▁tatitusti	-1385
▁jar	-1386
▁ale	-1387
▁mientras	-1388
dido	-1389
anaka	-1390
cieron	-1391
▁cosas	-1392
▁hon	-1393
ims	-1394
ár	-1395
apajj	-1396
▁quier	-1397
▁oro	-1398
▁wawanakap	-1399
tor	-1400
▁cawquïri	-1401
asï	-1402
▁jicjjat	-1403
fr	-1404
▁isa	-1405
▁kuntix	-1406
íos	-1407
▁pusi	-1408
▁jisk	-1409
usisiñ	-1410
▁cumpl	-1411
ído	-1412
eit	-1413
che	-1414
có	-1415
▁bus	-1416
▁profeta	-1417
▁sant	-1418
aparu	-1419
▁descendientes	-1420
▁segu	-1421
iniwa	-1422
▁arc	-1423
▁tan	-1424
po	-1425
▁pecado	-1426
▁siwa	-1427
▁jesusasti	-1428
▁aski	-1429
▁canc	-1430
▁cer	-1431
▁tenía	-1432
chi	-1433
äs	-1434
▁diosar	-1435
▁dis	-1436
cido	-1437
itejj	-1438
atwa	-1439
▁serán	-1440
▁tiene	-1441
way	-1442
▁cawquïr	-1443
▁aceit	-1444
ansti	-1445
ataquejj	-1446
▁tal	-1447
jjäna	-1448
▁jumajj	-1449
▁jichhajj	-1450
ipc	-1451
▁fuego	-1452
ientos	-1453
hat	-1454
▁antes	-1455
akiw	-1456
▁aarón	-1457
araquim	-1458
▁jichhasti	-1459
ucr	-1460
ern	-1461
▁tem	-1462
aqall	-1463
ari	-1464
▁qall	-1465
▁br	-1466
▁ne	-1467
▁lokt	-1468
▁af	-1469
arakïna	-1470
gas	-1471
▁kunapachatix	-1472
yo	-1473
igos	-1474
▁kall	-1475
away	-1476
acas	-1477
tï	-1478
akallk	-1479
iendo	-1480
▁jesucr	-1481
apjje	-1482
▁jupanacasti	-1483
▁angel	-1484
▁juchañch	-1485
▁ojos	-1486
▁siete	-1487
▁destru	-1488
cen	-1489
oco	-1490
äwinak	-1491
▁reun	-1492
▁kawkh	-1493
▁verdad	-1494
kas	-1495
▁famili	-1496
▁atipj	-1497
▁jupanakar	-1498
oca	-1499
▁vez	-1500
per	-1501
▁luqt	-1502
bre	-1503
▁uta	-1504
ätawa	-1505
▁jaqin	-1506
▁qullan	-1507
▁bar	-1508
▁monte	-1509
▁taqpach	-1510
▁dijer	-1511
▁recib	-1512
su	-1513
▁sido	-1514
eces	-1515
▁reino	-1516
▁judi	-1517
▁arum	-1518
▁jucha	-1519
▁munasiñ	-1520
▁jis	-1521
pun	-1522
▁justi	-1523
▁volv	-1524
▁jiwaray	-1525
▁mach	-1526
▁jaqix	-1527
▁ucatwa	-1528
▁eres	-1529
ecer	-1530
aparuw	-1531
zar	-1532
cip	-1533
akhes	-1534
▁puso	-1535
▁qullq	-1536
▁yänak	-1537
▁lurir	-1538
ïniwa	-1539
quías	-1540
itan	-1541
▁reb	-1542
▁prop	-1543
▁án	-1544
▁niy	-1545
▁jiwa	-1546
▁va	-1547
ayas	-1548
▁dice	-1549
▁palabras	-1550
▁khith	-1551
gre	-1552
▁eran	-1553
▁quienes	-1554
▁babilonia	-1555
▁salomón	-1556
so	-1557
chas	-1558
irux	-1559
isi	-1560
apxi	-1561
▁rep	-1562
apampi	-1563
▁inti	-1564
▁qhitinac	-1565
▁palabra	-1566
▁jupa	-1567
itos	-1568
▁tab	-1569
▁utt	-1570
atakiw	-1571
▁kawk	-1572
▁imant	-1573
▁mir	-1574
▁ñanqha	-1575
▁hace	-1576
▁ucqhajja	-1577
▁jupanakasti	-1578
▁markar	-1579
▁nuwasiñ	-1580
▁mundo	-1581
▁jaqu	-1582
▁ukx	-1583
▁em	-1584
▁for	-1585
▁saraq	-1586
ätwa	-1587
▁jupanacarojj	-1588
▁tend	-1589
anjja	-1590
▁uñjas	-1591
▁marca	-1592
▁jaken	-1593
atac	-1594
▁sapx	-1595
▁ofrenda	-1596
ren	-1597
anos	-1598
▁sim	-1599
▁juma	-1600
ichh	-1601
emás	-1602
▁fin	-1603
▁ajll	-1604
▁fal	-1605
▁amtas	-1606
lav	-1607
tap	-1608
▁jiskt	-1609
ik	-1610
▁además	-1611
vos	-1612
▁glor	-1613
▁pers	-1614
▁jumax	-1615
▁justicia	-1616
ordán	-1617
▁arm	-1618
▁tucuy	-1619
gunt	-1620
▁ask	-1621
▁traba	-1622
▁jordán	-1623
ayasiñ	-1624
kani	-1625
▁uru	-1626
ñap	-1627
anacasti	-1628
ador	-1629
▁tukuy	-1630
▁jerusalen	-1631
ció	-1632
rib	-1633
▁sí	-1634
▁alajj	-1635
dios	-1636
▁moab	-1637
ampejj	-1638
edo	-1639
▁ejer	-1640
▁estas	-1641
▁pe	-1642
▁ra	-1643
anquir	-1644
▁arust	-1645
▁dijeron	-1646
▁durante	-1647
▁mus	-1648
▁ñankha	-1649
ucu	-1650
añax	-1651
▁kor	-1652
▁bendi	-1653
▁puede	-1654
▁muchos	-1655
▁pregunt	-1656
unca	-1657
▁campam	-1658
▁bas	-1659
▁thiy	-1660
▁reyip	-1661
▁janipuniw	-1662
cani	-1663
▁desierto	-1664
arakï	-1665
▁aunque	-1666
cl	-1667
araki	-1668
▁prom	-1669
▁waxt	-1670
▁ucatjja	-1671
cog	-1672
eos	-1673
ña	-1674
imo	-1675
▁jus	-1676
dia	-1677
▁kell	-1678
quiwa	-1679
▁jisct	-1680
ewa	-1681
cänti	-1682
apxani	-1683
ph	-1684
▁alax	-1685
▁mej	-1686
▁mayni	-1687
▁benjam	-1688
▁wawa	-1689
▁tribu	-1690
▁ayll	-1691
▁guar	-1692
▁casti	-1693
▁ejerc	-1694
kañ	-1695
▁cap	-1696
▁jiwat	-1697
känti	-1698
▁trigo	-1699
▁ejército	-1700
etas	-1701
▁sarakïnwa	-1702
▁nab	-1703
▁tor	-1704
▁uma	-1705
▁pied	-1706
▁judíos	-1707
▁beb	-1708
▁mucho	-1709
▁jefes	-1710
erán	-1711
▁jakenacajj	-1712
▁sangre	-1713
▁jilat	-1714
▁jerem	-1715
jamaw	-1716
asit	-1717
▁walt	-1718
▁alegr	-1719
▁enemigos	-1720
▁aps	-1721
▁contes	-1722
▁maldad	-1723
pachaw	-1724
act	-1725
uway	-1726
▁sacerdoten	-1727
irip	-1728
▁ma	-1729
▁chik	-1730
▁malv	-1731
▁dado	-1732
▁conoc	-1733
▁desp	-1734
▁juan	-1735
ate	-1736
▁sen	-1737
▁carn	-1738
▁noche	-1739
▁jupanakarux	-1740
▁gob	-1741
cañ	-1742
▁otra	-1743
tad	-1744
▁juram	-1745
ampiru	-1746
irï	-1747
▁cul	-1748
▁so	-1749
▁vien	-1750
▁ángel	-1751
▁chic	-1752
▁jays	-1753
▁pes	-1754
truy	-1755
aquiw	-1756
▁esclav	-1757
eza	-1758
käna	-1759
atro	-1760
▁comen	-1761
▁jaqinakax	-1762
▁pob	-1763
▁bet	-1764
▁santo	-1765
▁kunjämtix	-1766
quién	-1767
▁jichhax	-1768
▁munañ	-1769
▁reyisti	-1770
osa	-1771
▁año	-1772
▁espada	-1773
▁qhititejj	-1774
ciones	-1775
▁qhitinacatejj	-1776
cta	-1777
upx	-1778
▁paqall	-1779
▁sacrificio	-1780
▁ez	-1781
▁jon	-1782
▁reyes	-1783
▁jalt	-1784
bar	-1785
oso	-1786
▁envi	-1787
apänwa	-1788
▁taqin	-1789
▁urunak	-1790
▁paz	-1791
▁testi	-1792
▁sipansa	-1793
arjama	-1794
▁kollk	-1795
▁pakallk	-1796
▁diosam	-1797
▁katuy	-1798
▁co	-1799
apsa	-1800
▁qhan	-1801
äx	-1802
acar	-1803
▁ningun	-1804
▁tatay	-1805
cientos	-1806
▁presen	-1807
▁art	-1808
asina	-1809
▁khan	-1810
▁hermano	-1811
▁ucjjarusti	-1812
▁eng	-1813
▁aquí	-1814
▁cawqh	-1815
▁unos	-1816
añataki	-1817
▁efra	-1818
zó	-1819
▁luz	-1820
▁ukan	-1821
▁apt	-1822
▁pos	-1823
▁elis	-1824
▁cay	-1825
▁sepul	-1826
▁quimsa	-1827
▁santuar	-1828
ni	-1829
▁thakh	-1830
▁llak	-1831
▁asqui	-1832
▁apthap	-1833
sta	-1834
▁enseñ	-1835
▁encu	-1836
▁siervo	-1837
▁ri	-1838
tati	-1839
asini	-1840
▁arsta	-1841
amani	-1842
fer	-1843
und	-1844
ituwa	-1845
▁tukj	-1846
äwinac	-1847
rar	-1848
itix	-1849
▁markax	-1850
▁haré	-1851
▁urunac	-1852
▁ukhamasti	-1853
▁nayrakatap	-1854
▁incien	-1855
▁nuestros	-1856
icio	-1857
ono	-1858
▁catuy	-1859
▁causa	-1860
▁pachp	-1861
▁chu	-1862
▁qun	-1863
▁encon	-1864
▁kimsa	-1865
▁algu	-1866
acaso	-1867
▁fe	-1868
▁josé	-1869
ixa	-1870
▁bronc	-1871
ataquejja	-1872
▁ol	-1873
▁khep	-1874
ij	-1875
▁vuel	-1876
▁ucapachasti	-1877
äjj	-1878
unci	-1879
äyäta	-1880
▁nue	-1881
arojja	-1882
▁joab	-1883
▁manas	-1884
▁cuar	-1885
aqhis	-1886
▁frente	-1887
▁mom	-1888
▁haber	-1889
▁khe	-1890
▁voz	-1891
▁jaker	-1892
▁plata	-1893
▁escuch	-1894
äpjj	-1895
uras	-1896
▁ukkhaxa	-1897
▁chachax	-1898
ompi	-1899
▁miedo	-1900
▁mantañ	-1901
van	-1902
▁alt	-1903
eroso	-1904
▁mistun	-1905
car	-1906
▁cuatro	-1907
▁vac	-1908
añajj	-1909
▁alguien	-1910
▁musph	-1911
▁habitantes	-1912
▁utap	-1913
▁jesucristo	-1914
▁nunca	-1915
inas	-1916
▁lado	-1917
cama	-1918
anacaru	-1919
ea	-1920
istu	-1921
▁dem	-1922
▁juparojj	-1923
▁ant	-1924
▁quer	-1925
▁vein	-1926
ano	-1927
ont	-1928
aqui	-1929
taway	-1930
▁hacia	-1931
▁urun	-1932
▁churañ	-1933
▁llegó	-1934
▁mer	-1935
▁pel	-1936
▁sé	-1937
▁val	-1938
▁madre	-1939
irinakax	-1940
▁cuerpo	-1941
apjjani	-1942
▁pac	-1943
ona	-1944
▁coler	-1945
▁conti	-1946
estad	-1947
▁haya	-1948
▁jupaw	-1949
▁musphar	-1950
acio	-1951
imos	-1952
▁quit	-1953
▁pay	-1954
▁law	-1955
▁faraón	-1956
▁familia	-1957
▁esper	-1958
▁jakejj	-1959
▁tienen	-1960
▁ukhama	-1961
▁manasés	-1962
▁momento	-1963
das	-1964
▁niñ	-1965
▁sem	-1966
▁patak	-1967
ipxäna	-1968
▁hicieron	-1969
uro	-1970
▁animales	-1971
amas	-1972
▁jake	-1973
uda	-1974
▁uywat	-1975
inakax	-1976
▁chachasti	-1977
▁nayraqatap	-1978
ípu	-1979
elos	-1980
▁aceite	-1981
▁kankañ	-1982
▁lok	-1983
jt	-1984
▁ellas	-1985
▁maj	-1986
▁arro	-1987
▁discípu	-1988
inos	-1989
ansa	-1990
▁lurapjj	-1991
▁vend	-1992
aspa	-1993
lar	-1994
▁jist	-1995
anacampi	-1996
ilo	-1997
asisin	-1998
▁cabeza	-1999
▁vivir	-2000
▁pueblos	-2001
▁tucj	-2002
▁mensa	-2003
▁mujeres	-2004
▁eze	-2005
▁acanac	-2006
iriw	-2007
▁toke	-2008
▁isaac	-2009
anakasti	-2010
atán	-2011
▁efraín	-2012
▁ovejas	-2013
▁qhuyap	-2014
alla	-2015
▁padres	-2016
▁dere	-2017
▁phis	-2018
▁quem	-2019
▁ukkhasti	-2020
▁jose	-2021
▁caball	-2022
▁eno	-2023
▁ningún	-2024
▁propi	-2025
▁encuen	-2026
▁ig	-2027
▁samuel	-2028
▁tucu	-2029
▁sinti	-2030
apxäta	-2031
anakampi	-2032
▁dioses	-2033
▁khitis	-2034
asipxäna	-2035
äqui	-2036
jichh	-2037
▁ador	-2038
▁algo	-2039
ré	-2040
ño	-2041
▁ech	-2042
▁hoy	-2043
▁phes	-2044
▁reyir	-2045
▁sacerdot	-2046
▁alaxpach	-2047
arap	-2048
▁hablar	-2049
▁sisqui	-2050
▁gan	-2051
hán	-2052
▁pablo	-2053
▁cunatejj	-2054
alaad	-2055
▁aaron	-2056
▁presencia	-2057
▁da	-2058
▁cad	-2059
▁arca	-2060
▁jesusajj	-2061
▁ucanacasti	-2062
▁kusis	-2063
asipk	-2064
▁benjamín	-2065
▁puerta	-2066
▁campamento	-2067
▁apanuk	-2068
▁jumaw	-2069
▁uñtat	-2070
▁khuyap	-2071
▁ordenó	-2072
dom	-2073
▁kawkïr	-2074
ece	-2075
▁chica	-2076
akï	-2077
arlo	-2078
jjaru	-2079
▁jiwañ	-2080
fici	-2081
▁hier	-2082
▁waran	-2083
▁antepas	-2084
▁encontr	-2085
▁levitas	-2086
▁digo	-2087
osti	-2088
▁ucanaca	-2089
äki	-2090
inacajj	-2091
▁abraham	-2092
▁resp	-2093
▁orakenac	-2094
▁uqhamaraquiw	-2095
▁cusis	-2096
▁cuenta	-2097
asta	-2098
▁ukaxa	-2099
▁puesto	-2100
ario	-2101
▁pedro	-2102
▁manera	-2103
▁perdon	-2104
▁jumanacan	-2105
▁galaad	-2106
▁kollan	-2107
▁majestad	-2108
▁mejor	-2109
▁santuario	-2110
▁uqhamat	-2111
asïw	-2112
▁discípulos	-2113
▁jumanakar	-2114
mente	-2115
▁palacio	-2116
▁guerra	-2117
▁markankir	-2118
▁mío	-2119
khiti	-2120
▁jumanakan	-2121
äyät	-2122
▁yanapt	-2123
▁según	-2124
▁wakich	-2125
▁edom	-2126
▁abrahán	-2127
aris	-2128
cti	-2129
▁salió	-2130
▁aynacht	-2131
üna	-2132
idas	-2133
▁ham	-2134
▁lunt	-2135
▁cunapachatï	-2136
asim	-2137
▁fuera	-2138
▁quedó	-2139
▁campo	-2140
▁hemos	-2141
▁phuch	-2142
▁sión	-2143
▁real	-2144
▁profetas	-2145
▁dé	-2146
▁contestó	-2147
▁saräna	-2148
ataquiw	-2149
ela	-2150
▁vall	-2151
sal	-2152
apataqui	-2153
▁gloria	-2154
▁lak	-2155
▁uñst	-2156
min	-2157
atarak	-2158
anta	-2159
qhiti	-2160
▁awquip	-2161
jar	-2162
▁cuanto	-2163
rás	-2164
▁chuyman	-2165
▁juparux	-2166
illa	-2167
▁khitinak	-2168
áb	-2169
katayna	-2170
▁vesti	-2171
▁warank	-2172
täna	-2173
▁qal	-2174
af	-2175
cjj	-2176
▁warmip	-2177
▁incienso	-2178
▁jupanakan	-2179
anakat	-2180
umpi	-2181
▁tomó	-2182
▁mandó	-2183
▁mara	-2184
▁cinco	-2185
▁baal	-2186
▁wayn	-2187
▁llaqu	-2188
▁mayis	-2189
tú	-2190
rito	-2191
▁ark	-2192
▁den	-2193
▁puri	-2194
▁jacañ	-2195
▁gobern	-2196
▁estoy	-2197
▁qhit	-2198
▁taken	-2199
▁jaqinakan	-2200
▁markat	-2201
äp	-2202
▁recon	-2203
▁esos	-2204
▁grande	-2205
▁pecados	-2206
▁wilañch	-2207
atäpjj	-2208
▁igles	-2209
▁río	-2210
▁embar	-2211
kta	-2212
▁marcajj	-2213
cel	-2214
▁pond	-2215
▁entreg	-2216
gos	-2217
▁suyt	-2218
imiento	-2219
ós	-2220
adores	-2221
▁pir	-2222
taron	-2223
▁wasar	-2224
▁hol	-2225
smawa	-2226
▁ucaru	-2227
▁algunos	-2228
lan	-2229
amax	-2230
▁vio	-2231
tjja	-2232
▁nac	-2233
▁jutir	-2234
iré	-2235
▁preguntó	-2236
▁antepasados	-2237
▁cord	-2238
▁awkip	-2239
▁llegar	-2240
▁mandam	-2241
tran	-2242
▁obede	-2243
▁token	-2244
onan	-2245
▁siqu	-2246
▁sisc	-2247
▁cir	-2248
pï	-2249
▁contr	-2250
▁tantach	-2251
▁pil	-2252
▁nayrakat	-2253
▁utapan	-2254
ump	-2255
atäs	-2256
▁jesusax	-2257
och	-2258
▁sacerdotenak	-2259
▁chiqan	-2260
▁kunatix	-2261
acia	-2262
▁sas	-2263
▁bajo	-2264
ampisti	-2265
▁alajjpach	-2266
▁caso	-2267
▁naqh	-2268
▁crist	-2269
▁regres	-2270
▁cen	-2271
▁toker	-2272
▁ofrecer	-2273
▁siguiente	-2274
entos	-2275
▁chiqa	-2276
▁holoca	-2277
jeros	-2278
▁diri	-2279
▁có	-2280
▁waqui	-2281
▁ref	-2282
▁ukar	-2283
atpach	-2284
atat	-2285
▁jesusan	-2286
cur	-2287
oce	-2288
▁med	-2289
▁hub	-2290
▁jalsu	-2291
uv	-2292
▁diez	-2293
▁sean	-2294
▁holocaus	-2295
äjja	-2296
▁sup	-2297
▁punk	-2298
▁chachajj	-2299
▁khititix	-2300
▁qhitis	-2301
irix	-2302
▁ukapachaw	-2303
▁afir	-2304
▁ofrendas	-2305
dor	-2306
apaw	-2307
▁asir	-2308
▁pron	-2309
▁quims	-2310
esa	-2311
▁sina	-2312
▁bauti	-2313
▁envió	-2314
▁katunt	-2315
añana	-2316
▁rob	-2317
▁jilïrip	-2318
▁kal	-2319
▁khepar	-2320
duc	-2321
▁asqu	-2322
ipjjäna	-2323
▁levit	-2324
iel	-2325
ién	-2326
azar	-2327
▁tre	-2328
▁libro	-2329
▁miser	-2330
▁prepar	-2331
▁akapach	-2332
▁jumasti	-2333
▁diosasti	-2334
▁sacerdotenac	-2335
israel	-2336
kaniti	-2337
akt	-2338
añäni	-2339
▁hacen	-2340
▁cheka	-2341
▁bel	-2342
▁call	-2343
▁dicen	-2344
▁kellk	-2345
▁alegría	-2346
▁lunthat	-2347
▁juramento	-2348
caniti	-2349
▁consa	-2350
▁toket	-2351
iso	-2352
▁cel	-2353
▁jeremías	-2354
▁anci	-2355
▁jilt	-2356
▁filisteos	-2357
▁oy	-2358
able	-2359
▁fav	-2360
askak	-2361
pe	-2362
▁kutt	-2363
▁payan	-2364
▁cunjämtejj	-2365
▁cru	-2366
▁av	-2367
▁jakenacan	-2368
ull	-2369
ónde	-2370
▁fiesta	-2371
▁ira	-2372
▁kims	-2373
con	-2374
▁agr	-2375
▁davidan	-2376
ame	-2377
▁tener	-2378
▁jilïri	-2379
rado	-2380
ieran	-2381
▁hija	-2382
atax	-2383
▁yänac	-2384
kx	-2385
uta	-2386
ró	-2387
icor	-2388
▁utjir	-2389
▁dirig	-2390
▁khitinakatix	-2391
▁kusisiñ	-2392
gue	-2393
anacar	-2394
▁trono	-2395
▁utjäna	-2396
ah	-2397
▁tir	-2398
onaca	-2399
▁aynach	-2400
apjjänwa	-2401
▁favor	-2402
▁oraker	-2403
▁waranqa	-2404
▁conm	-2405
▁cutt	-2406
▁nayat	-2407
▁waranka	-2408
äti	-2409
usin	-2410
▁sutip	-2411
▁tarip	-2412
.'	-2413
▁acerca	-2414
int	-2415
▁cambi	-2416
ced	-2417
▁ele	-2418
▁pie	-2419
apjjäta	-2420
▁taypit	-2421
ïpjj	-2422
idur	-2423
untas	-2424
iduría	-2425
▁horas	-2426
▁sabiduría	-2427
▁misericor	-2428
aste	-2429
▁jichhür	-2430
▁luratap	-2431
apamp	-2432
▁llamó	-2433
▁waquich	-2434
▁respond	-2435
▁ofici	-2436
▁volvió	-2437
▁conmigo	-2438
▁sur	-2439
ritor	-2440
▁jakañ	-2441
▁acapach	-2442
▁siervos	-2443
▁perm	-2444
itak	-2445
quier	-2446
▁ru	-2447
▁and	-2448
▁hará	-2449
asipc	-2450
▁sisk	-2451
▁comun	-2452
jje	-2453
▁lí	-2454
▁nayarojj	-2455
▁acomp	-2456
▁irnaq	-2457
▁tuqin	-2458
▁grandes	-2459
jat	-2460
▁dan	-2461
▁cose	-2462
äpx	-2463
inta	-2464
▁cómo	-2465
▁chika	-2466
araquiniwa	-2467
▁jupanacan	-2468
amajj	-2469
▁ejércitos	-2470
ayat	-2471
▁tromp	-2472
▁territor	-2473
▁uqhamasti	-2474
▁jank	-2475
▁saber	-2476
▁ko	-2477
▁cri	-2478
▁jeh	-2479
▁som	-2480
▁cuid	-2481
ct	-2482
▁misma	-2483
▁seis	-2484
▁cunsa	-2485
▁faris	-2486
▁gu	-2487
truc	-2488
▁ber	-2489
▁sasaw	-2490
▁yatiq	-2491
▁jerob	-2492
▁suman	-2493
▁poco	-2494
ima	-2495
apqui	-2496
▁espad	-2497
▁poner	-2498
▁ezequías	-2499
ïta	-2500
awqh	-2501
orte	-2502
▁incl	-2503
etu	-2504
▁acab	-2505
nas	-2506
uco	-2507
alab	-2508
▁gal	-2509
▁pid	-2510
änjja	-2511
arakiw	-2512
▁podrá	-2513
▁aún	-2514
▁perd	-2515
▁thay	-2516
▁rebel	-2517
▁ejercito	-2518
▁confi	-2519
▁cabal	-2520
▁contigo	-2521
▁jakenacasti	-2522
▁é	-2523
▁mayor	-2524
arakïnwa	-2525
inakan	-2526
▁cielos	-2527
mon	-2528
▁def	-2529
ampoco	-2530
▁neces	-2531
▁qhipar	-2532
▁samaria	-2533
ría	-2534
sun	-2535
entes	-2536
▁vaca	-2537
▁marcaru	-2538
ayi	-2539
pod	-2540
avía	-2541
▁pies	-2542
▁cusisiñ	-2543
▁visto	-2544
▁acompañ	-2545
▁consagr	-2546
▁liw	-2547
asipjjäna	-2548
▁babiloni	-2549
mä	-2550
▁pacto	-2551
kan	-2552
▁ali	-2553
▁alab	-2554
▁propia	-2555
▁israelita	-2556
cómo	-2557
▁pataca	-2558
▁anunci	-2559
▁soldados	-2560
▁qhipatsti	-2561
ato	-2562
isión	-2563
▁paqallqu	-2564
bol	-2565
▁amon	-2566
▁makh	-2567
▁jerobo	-2568
▁soldadonak	-2569
▁sacrificios	-2570
▁van	-2571
▁niya	-2572
▁jaqinakar	-2573
▁ced	-2574
janit	-2575
▁malvados	-2576
▁asa	-2577
▁ajan	-2578
▁sufr	-2579
▁will	-2580
▁pampach	-2581
",	-2582
aph	-2583
lig	-2584
amampi	-2585
▁deben	-2586
▁yatipx	-2587
oma	-2588
▁mañana	-2589
▁cunjämatejj	-2590
▁tuqi	-2591
mir	-2592
▁qur	-2593
▁jefe	-2594
▁luray	-2595
▁maldi	-2596
▁munat	-2597
▁ordenado	-2598
osor	-2599
▁absal	-2600
▁muerto	-2601
▁escog	-2602
▁mos	-2603
onacan	-2604
▁tantacht	-2605
▁uva	-2606
arlos	-2607
illas	-2608
▁thaqu	-2609
▁ucqhajj	-2610
▁ár	-2611
▁aban	-2612
▁debe	-2613
▁kuti	-2614
▁mankh	-2615
▁quién	-2616
▁apayan	-2617
▁región	-2618
xar	-2619
▁bur	-2620
▁metros	-2621
▁tampoco	-2622
apjjañapataqui	-2623
kiw	-2624
aqhisiy	-2625
pues	-2626
ascaqu	-2627
▁walpun	-2628
▁pakallko	-2629
antat	-2630
▁pregun	-2631
▁primer	-2632
▁entrada	-2633
.""	-2634
irac	-2635
▁jaya	-2636
▁pens	-2637
▁viene	-2638
▁cancañ	-2639
lic	-2640
▁os	-2641
▁jamach	-2642
▁ninguna	-2643
asax	-2644
▁abi	-2645
▁morir	-2646
äwa	-2647
▁montes	-2648
tur	-2649
▁árbol	-2650
xani	-2651
▁decía	-2652
atjam	-2653
▁llevó	-2654
▁amorre	-2655
año	-2656
antay	-2657
▁cuales	-2658
▁tukus	-2659
ton	-2660
cias	-2661
atäpx	-2662
▁levantó	-2663
▁nayraqatan	-2664
▁misericordia	-2665
▁tengo	-2666
▁luqtir	-2667
vid	-2668
▁llor	-2669
asiñap	-2670
▁purific	-2671
▁yatipjj	-2672
anwa	-2673
▁prin	-2674
cuando	-2675
▁extran	-2676
▁sañ	-2677
▁vin	-2678
asqui	-2679
ayman	-2680
▁tuvo	-2681
▁jesusar	-2682
▁todavía	-2683
▁carne	-2684
▁muyunt	-2685
atxa	-2686
▁lino	-2687
▁señal	-2688
araquïta	-2689
▁muertos	-2690
▁oír	-2691
▁apay	-2692
ucodon	-2693
▁abandon	-2694
▁nuestra	-2695
ucodonosor	-2696
▁ayllun	-2697
▁urusti	-2698
uspa	-2699
▁hijas	-2700
▁jupamp	-2701
ankirinak	-2702
▁jilïrinac	-2703
▁marcanquir	-2704
ender	-2705
▁corr	-2706
▁liber	-2707
▁llegaron	-2708
rede	-2709
quitu	-2710
▁cana	-2711
▁alrede	-2712
pachansa	-2713
rac	-2714
orme	-2715
▁ído	-2716
▁manqh	-2717
▁asiria	-2718
▁tras	-2719
▁tribun	-2720
▁treinta	-2721
▁nabucodonosor	-2722
äkiti	-2723
▁nakh	-2724
▁inter	-2725
▁puriy	-2726
bió	-2727
▁cant	-2728
▁eter	-2729
▁jaqisti	-2730
▁az	-2731
ecto	-2732
▁murió	-2733
culo	-2734
▁inv	-2735
▁luräwinac	-2736
▁mandamientos	-2737
tit	-2738
pero	-2739
▁justo	-2740
▁eli	-2741
uspagar	-2742
▁apak	-2743
▁princip	-2744
apki	-2745
▁embargo	-2746
▁salieron	-2747
▁territorio	-2748
uqt	-2749
▁gad	-2750
▁tucus	-2751
▁presentar	-2752
▁muchas	-2753
ath	-2754
▁doce	-2755
▁urqu	-2756
poderoso	-2757
▁apanucu	-2758
▁todopoderoso	-2759
ïra	-2760
ipana	-2761
▁juz	-2762
▁op	-2763
arte	-2764
▁conse	-2765
llo	-2766
▁antut	-2767
▁qam	-2768
▁trat	-2769
▁levad	-2770
▁jaqinakasti	-2771
utos	-2772
▁canaán	-2773
gen	-2774
▁corti	-2775
▁perman	-2776
▁encuentro	-2777
▁qunt	-2778
▁diosaw	-2779
▁takpach	-2780
▁sil	-2781
▁comenzó	-2782
▁yuspagar	-2783
vas	-2784
▁awat	-2785
▁jall	-2786
ena	-2787
▁jaqir	-2788
▁uñisirinac	-2789
arme	-2790
aski	-2791
anacwa	-2792
xapxäna	-2793
▁ancianos	-2794
▁nub	-2795
▁thak	-2796
▁tuqit	-2797
añamataqui	-2798
▁ukxarusti	-2799
▁janc	-2800
▁utji	-2801
▁veinti	-2802
▁rub	-2803
irejj	-2804
▁jehú	-2805
▁qullqi	-2806
▁primero	-2807
tre	-2808
isit	-2809
ätap	-2810
arakini	-2811
ëjja	-2812
▁gen	-2813
▁ram	-2814
▁munañap	-2815
▁qillqat	-2816
▁israelitanac	-2817
aías	-2818
▁qawqh	-2819
▁valle	-2820
▁tatitut	-2821
▁wawanak	-2822
ior	-2823
▁emp	-2824
▁jor	-2825
▁pascu	-2826
amaw	-2827
arar	-2828
▁hall	-2829
▁sist	-2830
▁pueden	-2831
▁piedras	-2832
quen	-2833
▁beber	-2834
▁enfer	-2835
▁din	-2836
aparojj	-2837
▁hambre	-2838
ble	-2839
▁haz	-2840
▁circun	-2841
▁fu	-2842
▁ayud	-2843
▁maqh	-2844
▁lurapx	-2845
són	-2846
cado	-2847
▁haga	-2848
▁orake	-2849
▁ukapachasti	-2850
▁bronce	-2851
▁piedra	-2852
ces	-2853
afat	-2854
▁quq	-2855
▁tran	-2856
▁luräna	-2857
▁hu	-2858
▁phajj	-2859
▁ucanacjja	-2860
rim	-2861
▁habrá	-2862
▁suelo	-2863
▁ucapachaw	-2864
irjam	-2865
▁masip	-2866
atäniwa	-2867
▁janïra	-2868
▁servicio	-2869
bl	-2870
▁mul	-2871
▁tayk	-2872
▁escon	-2873
▁pheska	-2874
▁vas	-2875
▁mayjt	-2876
▁norte	-2877
▁rique	-2878
▁lup	-2879
▁sime	-2880
▁josafat	-2881
▁quedará	-2882
▁bo	-2883
palab	-2884
▁luräwinak	-2885
timo	-2886
▁tuy	-2887
dan	-2888
▁perf	-2889
▁estar	-2890
tron	-2891
▁lar	-2892
íncip	-2893
▁uraqinak	-2894
▁uñisirinak	-2895
achas	-2896
▁ayuda	-2897
palabra	-2898
▁(	-2899
etido	-2900
▁cuarenta	-2901
▁sojj	-2902
raquiw	-2903
▁judionak	-2904
uj	-2905
▁ukaw	-2906
▁príncip	-2907
▁gaba	-2908
kamaw	-2909
suy	-2910
ayañ	-2911
▁aut	-2912
apjja	-2913
▁honor	-2914
▁kont	-2915
bajo	-2916
▁juy	-2917
▁alto	-2918
▁llegue	-2919
tien	-2920
▁esaú	-2921
▁ropa	-2922
▁autor	-2923
▁esposa	-2924
arakiwa	-2925
▁phax	-2926
▁iyawsañ	-2927
apjjaraquïna	-2928
▁imt	-2929
▁sepulc	-2930
▁uñtata	-2931
▁awquinac	-2932
▁alrededor	-2933
▁rode	-2934
atäqui	-2935
▁pascua	-2936
▁edi	-2937
▁sata	-2938
▁dinero	-2939
▁tienda	-2940
rón	-2941
apas	-2942
cion	-2943
anacsa	-2944
anquiri	-2945
▁phisqa	-2946
cre	-2947
est	-2948
jup	-2949
▁gol	-2950
▁eliseo	-2951
este	-2952
áculo	-2953
▁amas	-2954
tak	-2955
▁pirq	-2956
▁obras	-2957
▁jumarojj	-2958
ru	-2959
amay	-2960
▁prote	-2961
anacasa	-2962
▁uqhamatwa	-2963
▁uñch	-2964
▁despre	-2965
▁laykuw	-2966
▁tengan	-2967
jjapjjäna	-2968
cuenta	-2969
▁makhat	-2970
▁tabern	-2971
▁escrito	-2972
▁dev	-2973
▁kok	-2974
ampisa	-2975
▁isthap	-2976
▁sarakïna	-2977
cid	-2978
mati	-2979
▁niño	-2980
▁canan	-2981
anacapa	-2982
▁taqiniw	-2983
rió	-2984
atäp	-2985
tante	-2986
äquiti	-2987
▁warminac	-2988
gü	-2989
señor	-2990
▁lanz	-2991
▁nina	-2992
▁destruy	-2993
▁puertas	-2994
▁pla	-2995
▁utapar	-2996
▁conforme	-2997
así	-2998
amañch	-2999
una	-3000
xta	-3001
▁familias	-3002
▁bat	-3003
▁iba	-3004
▁kay	-3005
▁boca	-3006
▁buena	-3007
▁pronto	-3008
▁jonatán	-3009
▁tabernáculo	-3010
▁engañ	-3011
▁volun	-3012
▁termin	-3013
▁llamado	-3014
▁tro	-3015
▁amar	-3016
▁unañ	-3017
anïnwa	-3018
▁enter	-3019
▁recog	-3020
▁cincuenta	-3021
▁uks	-3022
▁aguas	-3023
▁terren	-3024
aniel	-3025
▁galil	-3026
▁nayaru	-3027
▁person	-3028
▁yapuch	-3029
▁habló	-3030
▁caer	-3031
▁becer	-3032
▁juchan	-3033
ataquisti	-3034
▁autoridad	-3035
▁prov	-3036
▁pasar	-3037
onacajj	-3038
▁jumanacarojj	-3039
pasa	-3040
▁fel	-3041
▁viñ	-3042
▁tayc	-3043
▁casas	-3044
▁llevaron	-3045
cos	-3046
anti	-3047
arutejj	-3048
▁warminak	-3049
uru	-3050
▁hagan	-3051
atapata	-3052
▁nayraqat	-3053
▁luratanakap	-3054
li	-3055
kti	-3056
▁fuerte	-3057
▁sapxarak	-3058
▁ik	-3059
▁mostr	-3060
▁pusieron	-3061
▁ucqhasti	-3062
▁janiraqui	-3063
▁luratanacap	-3064
aruwa	-3065
▁mica	-3066
arjamaw	-3067
▁seguir	-3068
▁juparusti	-3069
▁dol	-3070
tasti	-3071
▁alim	-3072
atäpan	-3073
▁decían	-3074
▁ídolos	-3075
mar	-3076
▁len	-3077
▁aten	-3078
▁hebr	-3079
▁tenían	-3080
quit	-3081
▁fiel	-3082
▁juti	-3083
▁bueno	-3084
▁awkinak	-3085
gado	-3086
jó	-3087
ïñ	-3088
▁huy	-3089
atapa	-3090
▁apaq	-3091
▁lengu	-3092
▁chuyma	-3093
▁kamachi	-3094
nuk	-3095
▁perk	-3096
▁thaqh	-3097
apampiw	-3098
asasti	-3099
▁celeb	-3100
▁demás	-3101
akhesiy	-3102
kunatarak	-3103
▁say	-3104
athat	-3105
▁pele	-3106
▁wakt	-3107
▁churäna	-3108
▁lá	-3109
▁cuti	-3110
▁quipc	-3111
aka	-3112
tados	-3113
amasti	-3114
▁parti	-3115
▁diosat	-3116
▁""	-3117
añapa	-3118
▁israelitanakax	-3119
▁fle	-3120
▁tel	-3121
anacatejj	-3122
▁qullunak	-3123
bios	-3124
▁sart	-3125
▁nuwant	-3126
▁sinago	-3127
▁arsus	-3128
ict	-3129
pawa	-3130
ándo	-3131
▁ocu	-3132
▁dejó	-3133
anakaw	-3134
tata	-3135
▁carr	-3136
anakamp	-3137
apataki	-3138
▁jakesti	-3139
ko	-3140
tate	-3141
▁daniel	-3142
▁fuerza	-3143
▁mismos	-3144
uma	-3145
▁arre	-3146
▁sede	-3147
▁samarañ	-3148
ozo	-3149
▁ban	-3150
acias	-3151
raqui	-3152
▁hierro	-3153
ataquisa	-3154
▁ucanacajj	-3155
ipa	-3156
caraqu	-3157
▁ucasa	-3158
▁deberá	-3159
▁marcat	-3160
amat	-3161
apxta	-3162
▁ayun	-3163
▁uñtas	-3164
▁camach	-3165
apjjamti	-3166
ila	-3167
▁atac	-3168
arutix	-3169
▁acuer	-3170
▁be	-3171
▁inf	-3172
▁bete	-3173
▁oveja	-3174
▁malo	-3175
▁algún	-3176
▁conden	-3177
▁herm	-3178
▁derro	-3179
▁kawkha	-3180
▁derecha	-3181
▁ñanqhach	-3182
arakta	-3183
▁rev	-3184
▁wañ	-3185
pasti	-3186
▁bala	-3187
▁plan	-3188
▁acamp	-3189
▁betel	-3190
▁enemigo	-3191
lam	-3192
atäjj	-3193
▁amsta	-3194
▁podrán	-3195
ecía	-3196
▁anq	-3197
▁santi	-3198
▁segun	-3199
▁chuymampi	-3200
▁dom	-3201
▁allá	-3202
▁kunsa	-3203
apxamti	-3204
▁unañch	-3205
istati	-3206
titud	-3207
▁madi	-3208
aracta	-3209
▁discip	-3210
▁holocausto	-3211
guen	-3212
añapatak	-3213
▁eleazar	-3214
▁riquezas	-3215
igan	-3216
▁joás	-3217
▁qhitan	-3218
ór	-3219
▁jez	-3220
▁veces	-3221
▁jaqich	-3222
▁reyinac	-3223
sus	-3224
tamwa	-3225
▁hebrón	-3226
▁sig	-3227
▁pobre	-3228
▁uraqir	-3229
▁cumplir	-3230
xi	-3231
añu	-3232
▁alj	-3233
▁iqu	-3234
▁lep	-3235
▁estat	-3236
▁luqtañ	-3237
▁maynïr	-3238
▁ukampisa	-3239
icó	-3240
ipxam	-3241
▁diosap	-3242
upjj	-3243
atäki	-3244
▁faraon	-3245
oru	-3246
▁yä	-3247
▁har	-3248
▁jilïrinakap	-3249
edad	-3250
▁ang	-3251
▁sub	-3252
▁siri	-3253
▁viol	-3254
atänwa	-3255
▁angusti	-3256
▁lip	-3257
▁crey	-3258
▁casar	-3259
▁elías	-3260
▁uraqi	-3261
▁jiwayañ	-3262
▁suce	-3263
▁wact	-3264
▁quiero	-3265
▁mensaje	-3266
▁qhanañch	-3267
▁jilïrinak	-3268
▁masinakap	-3269
▁fir	-3270
▁uñjir	-3271
asiraqu	-3272
▁kollunac	-3273
ya	-3274
asan	-3275
jero	-3276
caspas	-3277
▁nuevo	-3278
asipxam	-3279
▁hechos	-3280
▁alianza	-3281
▁reinado	-3282
▁uqhamata	-3283
▁jumanacasti	-3284
▁cerca	-3285
▁viento	-3286
▁waquis	-3287
kama	-3288
▁jalj	-3289
apjjta	-3290
▁capitan	-3291
▁egipton	-3292
itap	-3293
tará	-3294
▁dir	-3295
▁repar	-3296
▁tribus	-3297
ëjj	-3298
▁ucar	-3299
▁rubén	-3300
▁mayamp	-3301
▁tienes	-3302
▁oración	-3303
▁contrario	-3304
▁saraquïna	-3305
gon	-3306
uto	-3307
▁sue	-3308
▁sáb	-3309
aquiwa	-3310
▁irnak	-3311
rus	-3312
▁ew	-3313
ïpan	-3314
▁saben	-3315
▁bautis	-3316
▁ejercit	-3317
caw	-3318
▁carp	-3319
anacat	-3320
▁mistuway	-3321
té	-3322
urak	-3323
▁igu	-3324
antañ	-3325
▁jupanacar	-3326
vi	-3327
segu	-3328
äpan	-3329
▁aleg	-3330
▁ukanakax	-3331
äñ	-3332
▁gede	-3333
▁guerr	-3334
▁puriñ	-3335
▁warmin	-3336
▁yatiñan	-3337
▁warmisti	-3338
▁uz	-3339
▁uñs	-3340
▁leví	-3341
▁phuchh	-3342
▁sumank	-3343
cunapach	-3344
▁destruir	-3345
▁testimon	-3346
▁ucjjarojj	-3347
eri	-3348
mas	-3349
▁impor	-3350
▁consid	-3351
▁nayamp	-3352
▁gracias	-3353
▁aquellos	-3354
▁entregar	-3355
▁sepulcro	-3356
▁nayraqatapan	-3357
▁kipk	-3358
▁comunidad	-3359
orr	-3360
▁oli	-3361
impiw	-3362
▁escrib	-3363
kiwa	-3364
▁janïr	-3365
▁reinó	-3366
añamataki	-3367
uni	-3368
▁iw	-3369
illos	-3370
inaca	-3371
▁llät	-3372
▁uñjañ	-3373
▁entrar	-3374
asar	-3375
ampir	-3376
ipjjam	-3377
▁sapür	-3378
▁job	-3379
anías	-3380
▁madera	-3381
▁recibir	-3382
kaw	-3383
ayna	-3384
apasa	-3385
▁jumanakasti	-3386
tol	-3387
▁catunt	-3388
▁compas	-3389
▁dentro	-3390
gn	-3391
▁jaqi	-3392
▁orko	-3393
jado	-3394
▁bon	-3395
▁acerc	-3396
▁arunakap	-3397
▁moisesasti	-3398
▁cier	-3399
▁reyi	-3400
apcäna	-3401
▁llamar	-3402
▁quedaron	-3403
asjj	-3404
▁odi	-3405
tatay	-3406
▁joac	-3407
▁maqhat	-3408
▁sutich	-3409
▁abim	-3410
▁jutas	-3411
▁sartas	-3412
anakarux	-3413
▁salomon	-3414
▁davidajj	-3415
▁daré	-3416
▁yant	-3417
▁maraw	-3418
▁jupampi	-3419
apxarakïna	-3420
▁chachat	-3421
▁trabajo	-3422
▁uñtataw	-3423
apxañapataki	-3424
ál	-3425
anuk	-3426
▁jani	-3427
▁amtäw	-3428
▁warar	-3429
isinsti	-3430
endo	-3431
ïtap	-3432
▁tim	-3433
▁aych	-3434
▁impuro	-3435
▁yuqapa	-3436
güen	-3437
▁rech	-3438
▁lanti	-3439
tamente	-3440
▁marcar	-3441
▁uqhamaw	-3442
▁volverá	-3443
anth	-3444
▁grit	-3445
respon	-3446
▁templ	-3447
▁bondad	-3448
▁conver	-3449
▁jayp	-3450
▁ninguno	-3451
▁jakenaca	-3452
▁markanakan	-3453
▁jith	-3454
▁quis	-3455
▁jupat	-3456
▁munta	-3457
▁venido	-3458
illt	-3459
▁lav	-3460
irist	-3461
▁nakt	-3462
▁dónde	-3463
▁extra	-3464
▁jamás	-3465
zos	-3466
▁oído	-3467
▁mucha	-3468
▁poses	-3469
▁isaías	-3470
▁phajjs	-3471
▁discipul	-3472
eras	-3473
nayax	-3474
▁vieron	-3475
du	-3476
ascäna	-3477
asisaw	-3478
▁munas	-3479
▁carros	-3480
▁waljan	-3481
anacapsa	-3482
▁paqallq	-3483
iqh	-3484
▁agrad	-3485
▁llamp	-3486
▁herencia	-3487
ikt	-3488
ner	-3489
esto	-3490
▁ucs	-3491
añuch	-3492
▁layc	-3493
▁expul	-3494
▁gener	-3495
▁phust	-3496
▁nayrïr	-3497
▁cunjämtï	-3498
ïp	-3499
▁bra	-3500
ktati	-3501
catayna	-3502
▁juicio	-3503
▁ukanakasti	-3504
▁cawquïritejj	-3505
ror	-3506
irim	-3507
▁jin	-3508
▁somos	-3509
▁iglesi	-3510
▁yäq	-3511
▁zab	-3512
▁jericó	-3513
▁jesucrist	-3514
▁jumanacar	-3515
alo	-3516
▁laq	-3517
▁davidasti	-3518
▁esperanza	-3519
orm	-3520
añas	-3521
▁fur	-3522
▁sid	-3523
asinxa	-3524
▁peque	-3525
▁maynis	-3526
añatakiw	-3527
▁ukhamaw	-3528
▁moisesajj	-3529
ïw	-3530
tale	-3531
▁robo	-3532
▁pagar	-3533
▁uksti	-3534
▁propio	-3535
▁reposo	-3536
▁wawach	-3537
anacas	-3538
aspati	-3539
▁joven	-3540
▁chekan	-3541
▁yaqhip	-3542
▁batalla	-3543
▁desh	-3544
▁modo	-3545
▁obra	-3546
▁pien	-3547
▁encar	-3548
▁lejos	-3549
▁achunak	-3550
eci	-3551
rojj	-3552
▁quta	-3553
▁sarjj	-3554
▁promesa	-3555
▁tierras	-3556
▁jakenacarojj	-3557
▁oí	-3558
▁lit	-3559
▁tes	-3560
ancia	-3561
▁hero	-3562
▁jayt	-3563
aparux	-3564
▁venir	-3565
▁comple	-3566
▁inclin	-3567
dec	-3568
jes	-3569
tio	-3570
amsa	-3571
anacaw	-3572
anaksa	-3573
atapat	-3574
▁olvid	-3575
▁phaxs	-3576
▁warmix	-3577
atakisti	-3578
▁wasaran	-3579
gó	-3580
taq	-3581
ates	-3582
▁isma	-3583
▁prosti	-3584
▁nuwasïw	-3585
▁wilañcha	-3586
bano	-3587
▁cub	-3588
acama	-3589
▁sarx	-3590
▁asiri	-3591
▁elias	-3592
▁sojjta	-3593
▁nanakax	-3594
apaq	-3595
▁acep	-3596
▁abund	-3597
▁casta	-3598
▁servir	-3599
▁parläna	-3600
▁salvación	-3601
▁sedequías	-3602
cub	-3603
ense	-3604
▁nación	-3605
▁chekaru	-3606
▁conocer	-3607
nu	-3608
iga	-3609
▁aver	-3610
▁sull	-3611
▁achikt	-3612
▁davidax	-3613
▁filisteo	-3614
▁khanañch	-3615
iz	-3616
▁coman	-3617
▁total	-3618
▁labios	-3619
▁jaqirux	-3620
▁ucansti	-3621
ug	-3622
▁kil	-3623
▁prue	-3624
▁saqu	-3625
▁abner	-3626
▁tarde	-3627
▁kankañap	-3628
aracwa	-3629
quiera	-3630
▁chhak	-3631
▁llegado	-3632
irinakasti	-3633
rio	-3634
bido	-3635
▁amo	-3636
▁arup	-3637
▁jakir	-3638
▁suxta	-3639
▁ukasa	-3640
▁persona	-3641
tj	-3642
ink	-3643
ïpx	-3644
▁tenga	-3645
▁declar	-3646
▁ucapachajj	-3647
anïñ	-3648
empi	-3649
▁bal	-3650
▁otras	-3651
▁senta	-3652
▁jucharar	-3653
▁amay	-3654
bón	-3655
élec	-3656
omach	-3657
▁puncu	-3658
tatitux	-3659
▁chikat	-3660
iraquiwa	-3661
▁nanacajj	-3662
▁soldadonac	-3663
xiwa	-3664
itaya	-3665
▁hice	-3666
▁hubo	-3667
▁apnaker	-3668
awj	-3669
▁cedro	-3670
▁zacar	-3671
ustedes	-3672
▁conduc	-3673
▁veinte	-3674
▁fuerzas	-3675
▁nuwasir	-3676
▁voluntad	-3677
ería	-3678
▁tuv	-3679
apkän	-3680
asiri	-3681
iones	-3682
umach	-3683
▁lepra	-3684
▁ruego	-3685
▁moisesan	-3686
▁qar	-3687
▁temor	-3688
aqhisiñ	-3689
▁juparu	-3690
▁uqhamwa	-3691
ktam	-3692
uqham	-3693
anakas	-3694
▁enojo	-3695
ampejja	-3696
▁herodes	-3697
▁caballos	-3698
▁egipcios	-3699
▁utjquiti	-3700
▁uraqinkir	-3701
pura	-3702
▁kar	-3703
▁mac	-3704
ïtawa	-3705
▁orgu	-3706
▁pisi	-3707
▁alcan	-3708
▁salir	-3709
▁hermos	-3710
▁ismael	-3711
▁saraqir	-3712
▁testimonio	-3713
▁mol	-3714
atajj	-3715
▁jiqu	-3716
▁tiro	-3717
antejj	-3718
▁larus	-3719
akhesiñ	-3720
▁cambio	-3721
▁nayarux	-3722
▁oriente	-3723
del	-3724
iway	-3725
onakan	-3726
▁achict	-3727
▁llevar	-3728
▁walinac	-3729
uka	-3730
ïqui	-3731
▁pen	-3732
cunat	-3733
▁uruw	-3734
▁chhaq	-3735
▁metro	-3736
▁qhapaq	-3737
▁amparap	-3738
▁castigar	-3739
aniñ	-3740
mawa	-3741
▁calde	-3742
▁dieron	-3743
▁yokapa	-3744
anakaruw	-3745
asipjjam	-3746
▁acuerdo	-3747
▁jumarux	-3748
▁utjkiti	-3749
inq	-3750
▁exp	-3751
▁sutim	-3752
▁cierto	-3753
▁irpsun	-3754
amppacha	-3755
▁asn	-3756
▁pol	-3757
▁vista	-3758
▁compañ	-3759
▁markarux	-3760
ïy	-3761
▁nayrakatan	-3762
▁rel	-3763
▁akanak	-3764
▁qhuyapayasiñ	-3765
para	-3766
doque	-3767
zaron	-3768
▁noti	-3769
▁churapjj	-3770
▁mardoque	-3771
▁discipulonac	-3772
▁wawanacapasti	-3773
úm	-3774
amak	-3775
▁muni	-3776
▁usut	-3777
▁preso	-3778
▁propios	-3779
▁tenemos	-3780
uey	-3781
eran	-3782
▁arxat	-3783
▁ucatpï	-3784
ños	-3785
▁fruto	-3786
▁uñkat	-3787
".	-3788
▁phiñ	-3789
▁inamay	-3790
▁nuestras	-3791
▁jakenacaru	-3792
▁justos	-3793
▁quiere	-3794
▁jeremias	-3795
gal	-3796
▁tup	-3797
▁aves	-3798
▁buey	-3799
▁fortale	-3800
▁markaruw	-3801
asajj	-3802
▁estu	-3803
▁mesa	-3804
▁harán	-3805
▁saraqu	-3806
▁absalón	-3807
▁janchip	-3808
▁kunayman	-3809
▁jupanakat	-3810
▁jumanakarux	-3811
▁ank	-3812
▁oficial	-3813
▁israelitanacajj	-3814
tend	-3815
▁cuntï	-3816
▁castigo	-3817
▁juchanï	-3818
▁kawkhan	-3819
▁tatituruw	-3820
apjjaraquim	-3821
▁cuy	-3822
▁yur	-3823
cawqu	-3824
ayawa	-3825
güenza	-3826
▁katun	-3827
▁wawap	-3828
▁apanuc	-3829
▁josías	-3830
▁malvado	-3831
anacapajj	-3832
▁jaqinakarux	-3833
▁quin	-3834
anacarojj	-3835
▁sarapxäna	-3836
▁yatiqirinak	-3837
▁arsü	-3838
▁moisesax	-3839
eció	-3840
▁tuqir	-3841
ipansti	-3842
trucción	-3843
▁kunjämatix	-3844
▁uqhamarjama	-3845
ufr	-3846
iris	-3847
▁igual	-3848
▁oprim	-3849
▁humill	-3850
▁kollke	-3851
quirinac	-3852
▁constru	-3853
iraquïnwa	-3854
rak	-3855
abel	-3856
▁domin	-3857
▁arjjat	-3858
▁compar	-3859
▁nef	-3860
▁azar	-3861
▁gracia	-3862
▁lengua	-3863
irinacajj	-3864
▁personas	-3865
▁sapjjänwa	-3866
take	-3867
akiwa	-3868
▁clas	-3869
▁basán	-3870
▁siria	-3871
▁líbano	-3872
▁sapxänwa	-3873
acha	-3874
adad	-3875
ecen	-3876
onar	-3877
▁kota	-3878
▁atacar	-3879
▁caminos	-3880
▁khuyapt	-3881
▁completo	-3882
▁prostitu	-3883
▁cunjämatï	-3884
▁ucapachajja	-3885
ctor	-3886
▁lac	-3887
▁acos	-3888
▁jila	-3889
apxitu	-3890
▁arnak	-3891
askakïnwa	-3892
▁volvieron	-3893
aractwa	-3894
▁ajayun	-3895
▁warmejj	-3896
ïsa	-3897
imaya	-3898
▁pabl	-3899
▁uruy	-3900
▁uywa	-3901
cunjäm	-3902
▁aytat	-3903
▁marav	-3904
▁puedo	-3905
▁impues	-3906
▁sábado	-3907
▁sapjjaraquïnwa	-3908
sasaw	-3909
▁suer	-3910
▁tawa	-3911
▁awkix	-3912
ufrates	-3913
▁tendrá	-3914
▁utjqui	-3915
▁príncipes	-3916
ible	-3917
äñap	-3918
▁sabe	-3919
▁damas	-3920
▁tomar	-3921
anacjja	-3922
▁permiti	-3923
anacapasti	-3924
är	-3925
▁hil	-3926
▁ses	-3927
raron	-3928
▁cara	-3929
▁qawqha	-3930
▁ukansti	-3931
▁chiqankir	-3932
▁compasión	-3933
▁ros	-3934
▁dará	-3935
▁mató	-3936
▁desti	-3937
▁entró	-3938
▁viven	-3939
caspati	-3940
▁parlañ	-3941
▁lugares	-3942
▁cancañap	-3943
kay	-3944
iencia	-3945
quejja	-3946
▁carro	-3947
▁inten	-3948
▁simón	-3949
▁uñjta	-3950
▁ganado	-3951
▁phuqhant	-3952
▁frutos	-3953
▁yuqall	-3954
bos	-3955
erse	-3956
▁apos	-3957
▁dije	-3958
▁ucanc	-3959
apxätam	-3960
añapawa	-3961
isinjja	-3962
▁cordero	-3963
▁construy	-3964
▁purificación	-3965
▁hic	-3966
ätajja	-3967
▁clase	-3968
▁alguno	-3969
▁descan	-3970
imientos	-3971
▁enviado	-3972
▁wawanacam	-3973
▁cawquïrinac	-3974
▁aman	-3975
▁efod	-3976
▁jath	-3977
▁qamir	-3978
▁wakis	-3979
▁derram	-3980
▁estado	-3981
▁walinak	-3982
bá	-3983
▁cosecha	-3984
▁úl	-3985
▁sép	-3986
anzas	-3987
▁isip	-3988
▁sacó	-3989
▁chacha	-3990
▁chiqat	-3991
▁ejercitop	-3992
itax	-3993
▁pag	-3994
▁wayt	-3995
▁provin	-3996
▁ucaruw	-3997
▁aquella	-3998
▁quedado	-3999
▁atención	-4000
▁cubr	-4001
▁comida	-4002
▁recons	-4003
▁reinar	-4004
anakapax	-4005
anakatix	-4006
▁apnaqir	-4007
▁propiedad	-4008
asisa	-4009
▁pani	-4010
▁phisq	-4011
▁escrit	-4012
▁damasco	-4013
▁jalanta	-4014
etos	-4015
▁pud	-4016
▁maes	-4017
▁mich	-4018
▁ester	-4019
▁loktañ	-4020
▁arunacap	-4021
▁moisesar	-4022
▁posesión	-4023
äwim	-4024
▁allchh	-4025
xatap	-4026
▁llätun	-4027
▁jiquisiñ	-4028
▁yupaychañ	-4029
may	-4030
▁raz	-4031
venes	-4032
ïnjja	-4033
▁suced	-4034
▁ucanwa	-4035
▁sarapjjäna	-4036
emb	-4037
▁junt	-4038
▁kilo	-4039
▁sall	-4040
▁qullu	-4041
▁ajayup	-4042
▁metron	-4043
▁rescat	-4044
araquïniwa	-4045
▁jó	-4046
▁umt	-4047
▁maya	-4048
▁jóvenes	-4049
apjjaraquini	-4050
?'	-4051
sut	-4052
▁lam	-4053
▁sado	-4054
apxita	-4055
▁uñcat	-4056
▁debajo	-4057
▁mayniw	-4058
▁awquejj	-4059
▁dirigió	-4060
▁jiwasan	-4061
▁nayampi	-4062
▁wiñayatak	-4063
▁muspharkañ	-4064
cch	-4065
injam	-4066
▁cosa	-4067
▁reyit	-4068
cunatsa	-4069
▁vivían	-4070
▁jab	-4071
▁ucsa	-4072
▁dolor	-4073
▁kamir	-4074
▁prueba	-4075
▁séptimo	-4076
▁consider	-4077
▁marcanjja	-4078
▁ukhamaraki	-4079
illo	-4080
ísimo	-4081
▁esté	-4082
▁jutañ	-4083
▁templop	-4084
▁ukhamarus	-4085
talí	-4086
▁abr	-4087
nayajj	-4088
▁sadoc	-4089
▁quedarán	-4090
zado	-4091
▁cob	-4092
apcänti	-4093
▁consum	-4094
▁maynit	-4095
asipxani	-4096
▁jikisiñ	-4097
▁despreci	-4098
▁wawanakam	-4099
aza	-4100
rec	-4101
▁lot	-4102
atäñap	-4103
▁janis	-4104
▁maría	-4105
▁qallt	-4106
apkänti	-4107
▁cuttan	-4108
▁jumamp	-4109
▁pobres	-4110
▁tranqu	-4111
▁jakerojj	-4112
▁jumanakat	-4113
▁vergüenza	-4114
apjjaraquïnwa	-4115
chañ	-4116
rita	-4117
jjani	-4118
▁jude	-4119
▁pati	-4120
▁yokap	-4121
apxtaxa	-4122
▁machaq	-4123
▁mayninac	-4124
▁zacarías	-4125
▁vig	-4126
▁vive	-4127
atakis	-4128
thapiñ	-4129
▁ajllit	-4130
▁sabios	-4131
▁solamente	-4132
▁cawqhantejj	-4133
▁luri	-4134
▁chicat	-4135
▁vengan	-4136
▁siquiera	-4137
▁uñjasini	-4138
ego	-4139
nón	-4140
▁conv	-4141
▁irpan	-4142
▁tawaqu	-4143
▁ukaruw	-4144
anakapsa	-4145
▁galilea	-4146
▁hermana	-4147
aquï	-4148
tido	-4149
▁seg	-4150
rados	-4151
▁estre	-4152
▁exten	-4153
▁janipun	-4154
▁masinak	-4155
▁quieren	-4156
▁marcanacan	-4157
anim	-4158
▁habla	-4159
▁niños	-4160
▁yatis	-4161
▁llamaba	-4162
▁reyimpi	-4163
▁khespiyasiñ	-4164
▁arnaq	-4165
▁caden	-4166
▁pedaz	-4167
▁polvo	-4168
▁montañ	-4169
▁pasado	-4170
▁primeros	-4171
▁volverán	-4172
uera	-4173
jjänwa	-4174
▁arras	-4175
▁resul	-4176
▁tesor	-4177
▁apostol	-4178
▁azarías	-4179
▁derecho	-4180
▁jumampi	-4181
▁tiempos	-4182
▁jupanakarusti	-4183
denes	-4184
órdenes	-4185
inc	-4186
ïki	-4187
▁ido	-4188
▁put	-4189
▁amal	-4190
▁pist	-4191
apisiñ	-4192
▁jumat	-4193
▁qunuñ	-4194
▁refug	-4195
apuniwa	-4196
anacapjja	-4197
ascaquïnwa	-4198
amac	-4199
anit	-4200
▁dedi	-4201
▁triste	-4202
▁pu	-4203
ello	-4204
itani	-4205
▁belén	-4206
▁falta	-4207
▁alguna	-4208
▁encima	-4209
▁reunión	-4210
▁segundo	-4211
▁marcarojj	-4212
▁hora	-4213
▁chuymamp	-4214
▁ukspachaw	-4215
kis	-4216
quel	-4217
tanwa	-4218
▁tela	-4219
▁urux	-4220
▁wajj	-4221
▁dejar	-4222
▁menos	-4223
▁sabio	-4224
▁saram	-4225
▁venga	-4226
kamasti	-4227
▁deberán	-4228
▁neftalí	-4229
▁terreno	-4230
▁jurament	-4231
▁tatitumpi	-4232
mi	-4233
uca	-4234
uso	-4235
▁alde	-4236
▁sarañ	-4237
anacana	-4238
▁proteg	-4239
▁sansón	-4240
kunapach	-4241
▁nayatak	-4242
▁órdenes	-4243
▁acanacänwa	-4244
▁khuyapayasiñ	-4245
jay	-4246
▁ag	-4247
▁sip	-4248
▁cent	-4249
▁sald	-4250
▁largo	-4251
▁matar	-4252
▁seres	-4253
▁cuidado	-4254
▁mataron	-4255
▁alajjpachan	-4256
▁ib	-4257
umar	-4258
▁inj	-4259
úmero	-4260
ficado	-4261
▁carpa	-4262
▁tokeru	-4263
añatakix	-4264
▁guardia	-4265
▁kollana	-4266
▁acus	-4267
▁hiti	-4268
▁piel	-4269
▁wach	-4270
▁colum	-4271
▁contar	-4272
▁becerro	-4273
▁diosaru	-4274
▁jaqinakaw	-4275
▁kimsaqall	-4276
üru	-4277
▁esas	-4278
▁mila	-4279
▁seme	-4280
ankiwa	-4281
▁culto	-4282
▁sueño	-4283
▁waraw	-4284
▁habita	-4285
▁número	-4286
▁jilïrinacap	-4287
apuniw	-4288
▁amtat	-4289
▁ciento	-4290
▁escond	-4291
▁raquel	-4292
▁yakhep	-4293
▁entregó	-4294
▁reconoc	-4295
▁jeroboán	-4296
▁tatitump	-4297
▁punc	-4298
▁walj	-4299
▁ucsti	-4300
▁jumaru	-4301
▁chuymach	-4302
▁quimsakallk	-4303
asx	-4304
eso	-4305
▁ho	-4306
▁taw	-4307
▁filo	-4308
▁libr	-4309
▁necio	-4310
▁secre	-4311
▁utjki	-4312
anakaru	-4313
▁afirmo	-4314
▁ukkhax	-4315
▁jaqunuk	-4316
▁ángeles	-4317
árcel	-4318
▁clam	-4319
▁resto	-4320
▁derrib	-4321
▁mayninak	-4322
uruw	-4323
ensil	-4324
▁sara	-4325
▁tawak	-4326
▁balaam	-4327
▁chiqar	-4328
▁entend	-4329
▁ruinas	-4330
▁uñjäna	-4331
▁arunaca	-4332
▁utensil	-4333
adá	-4334
enk	-4335
eto	-4336
sos	-4337
äwin	-4338
▁liq	-4339
▁leon	-4340
▁much	-4341
▁kellkat	-4342
▁munañan	-4343
araquëjja	-4344
▁phokhant	-4345
bal	-4346
▁kuns	-4347
▁tata	-4348
arakim	-4349
añampi	-4350
ciendo	-4351
▁golpe	-4352
▁ukank	-4353
▁levadura	-4354
▁ij	-4355
goll	-4356
taqi	-4357
xaru	-4358
tayan	-4359
ayapjj	-4360
▁extranjeros	-4361
äqu	-4362
▁rue	-4363
▁nube	-4364
▁qhar	-4365
▁anqäx	-4366
▁centi	-4367
▁sarant	-4368
▁esclavo	-4369
▁árboles	-4370
▁cualquier	-4371
elec	-4372
iles	-4373
▁ajab	-4374
▁amán	-4375
▁cayó	-4376
jumasti	-4377
▁cárcel	-4378
khitirak	-4379
ecido	-4380
▁após	-4381
▁inte	-4382
▁sola	-4383
▁sumo	-4384
▁culpa	-4385
▁campos	-4386
▁persegu	-4387
▁kawkhantix	-4388
▁utensilios	-4389
ocu	-4390
ves	-4391
▁evan	-4392
▁hacía	-4393
▁jaquir	-4394
▁victor	-4395
▁evangel	-4396
▁á	-4397
ulo	-4398
▁ún	-4399
▁pier	-4400
▁chekaruw	-4401
lev	-4402
▁toc	-4403
▁busc	-4404
▁nayätwa	-4405
▁ucanacaru	-4406
riba	-4407
▁lluv	-4408
▁libre	-4409
▁menti	-4410
▁carcel	-4411
▁perver	-4412
▁criston	-4413
▁muralla	-4414
▁correspon	-4415
han	-4416
itar	-4417
camaw	-4418
ision	-4419
▁niyaw	-4420
▁planes	-4421
▁munapjj	-4422
▁wakicht	-4423
▁vestidos	-4424
ico	-4425
añsa	-4426
ulón	-4427
▁jas	-4428
ierta	-4429
unaca	-4430
▁ancho	-4431
▁patac	-4432
▁alaban	-4433
▁sacrifici	-4434
▁poderos	-4435
▁qhuyapt	-4436
bor	-4437
▁'¿	-4438
iman	-4439
▁ceb	-4440
▁gat	-4441
▁form	-4442
idades	-4443
▁amigo	-4444
▁kollu	-4445
▁kunan	-4446
▁nanac	-4447
▁vayan	-4448
▁ajllis	-4449
tasinjja	-4450
▁reyinak	-4451
▁respondieron	-4452
▁mays	-4453
▁sapak	-4454
▁rostro	-4455
▁arunakax	-4456
▁evangelio	-4457
▁jakenacaw	-4458
oni	-4459
▁alma	-4460
▁cono	-4461
▁jark	-4462
▁obed	-4463
▁puro	-4464
▁estuv	-4465
▁imill	-4466
▁luras	-4467
▁candel	-4468
▁jakañap	-4469
▁uñtatawa	-4470
be	-4471
▁tabl	-4472
askäna	-4473
▁kunas	-4474
anakapar	-4475
irinakan	-4476
▁yatiyäna	-4477
ukham	-4478
▁alas	-4479
▁umat	-4480
akïnwa	-4481
jamawa	-4482
almente	-4483
▁guardi	-4484
▁carnero	-4485
▁profeti	-4486
▁ukxaruw	-4487
añapatakiw	-4488
▁sallq	-4489
▁levita	-4490
▁tendrán	-4491
▁acciones	-4492
▁judionac	-4493
pre	-4494
äwix	-4495
▁jeb	-4496
▁sodo	-4497
isatix	-4498
ántate	-4499
▁judío	-4500
▁oscur	-4501
anakasa	-4502
▁quedar	-4503
▁esclavos	-4504
▁colerasiñ	-4505
▁sacerdotex	-4506
▁ukhamarakiw	-4507
atäx	-4508
fica	-4509
▁ken	-4510
▁suf	-4511
uraqu	-4512
▁repu	-4513
▁ukxa	-4514
▁farise	-4515
▁hiciste	-4516
▁pedazos	-4517
▁tatitojja	-4518
▁sirvirinac	-4519
▁ucanacajja	-4520
▁preguntaron	-4521
hab	-4522
irojj	-4523
▁luch	-4524
▁past	-4525
▁sagr	-4526
▁grano	-4527
▁jilar	-4528
▁resuc	-4529
▁egipci	-4530
▁kuttan	-4531
▁palaci	-4532
▁pastor	-4533
▁perten	-4534
▁jeroboam	-4535
ines	-4536
▁ayt	-4537
▁min	-4538
amamp	-4539
▁ewjj	-4540
▁vaya	-4541
arones	-4542
▁consul	-4543
▁laykux	-4544
anactejj	-4545
atäñapawa	-4546
▁qin	-4547
▁sex	-4548
apkta	-4549
chixa	-4550
▁utan	-4551
apkiti	-4552
ätamti	-4553
▁uraqip	-4554
nati	-4555
anita	-4556
▁alis	-4557
apxäma	-4558
asipxi	-4559
▁warawar	-4560
▁oficiales	-4561
pir	-4562
zías	-4563
ilgal	-4564
irïna	-4565
ätaxa	-4566
▁reina	-4567
kaspati	-4568
▁isinak	-4569
▁vendrá	-4570
▁angustia	-4571
sas	-4572
ted	-4573
umb	-4574
▁asno	-4575
▁león	-4576
▁decre	-4577
▁wayna	-4578
ataquis	-4579
▁principio	-4580
▁comb	-4581
▁rojo	-4582
▁zabulón	-4583
▁libertad	-4584
▁kamisatix	-4585
▁holocaustos	-4586
fí	-4587
far	-4588
▁inoc	-4589
▁estén	-4590
▁pueda	-4591
▁edific	-4592
▁loktas	-4593
araquïwa	-4594
uchh	-4595
kasin	-4596
▁cuns	-4597
▁limp	-4598
▁panes	-4599
▁sembr	-4600
▁bienes	-4601
▁parlir	-4602
▁sodoma	-4603
▁tenido	-4604
▁avergon	-4605
▁noé	-4606
▁nact	-4607
▁super	-4608
▁jaytan	-4609
▁fariseos	-4610
▁tuqinkir	-4611
▁arunacajj	-4612
▁wawapänwa	-4613
▁ukhamarjama	-4614
apis	-4615
icas	-4616
hasta	-4617
▁tuyo	-4618
anakapan	-4619
▁escogido	-4620
▁oscuridad	-4621
ili	-4622
tió	-4623
awll	-4624
amaru	-4625
▁terc	-4626
▁queda	-4627
▁wawax	-4628
voy	-4629
uran	-4630
áver	-4631
▁joy	-4632
dónde	-4633
▁busca	-4634
▁hebre	-4635
▁moned	-4636
▁usted	-4637
▁cadáver	-4638
▁chachaw	-4639
▁sesenta	-4640
▁chiqaruw	-4641
▁gobernador	-4642
san	-4643
acwa	-4644
▁qhir	-4645
▁chachampi	-4646
men	-4647
achat	-4648
▁derr	-4649
▁phok	-4650
▁toma	-4651
▁acord	-4652
isiones	-4653
▁milagr	-4654
▁satänwa	-4655
▁llakisiñ	-4656
▁multitud	-4657
ezca	-4658
irse	-4659
▁ces	-4660
▁carta	-4661
▁punku	-4662
▁vamos	-4663
▁nanacan	-4664
▁ukanaka	-4665
▁arsutapar	-4666
kä	-4667
bas	-4668
cal	-4669
dal	-4670
ipxi	-4671
kitu	-4672
▁due	-4673
apcta	-4674
▁kilos	-4675
▁urojj	-4676
▁valor	-4677
aquïnwa	-4678
▁laycuw	-4679
▁tatitü	-4680
▁amonitas	-4681
▁katuntas	-4682
▁ukanakat	-4683
▁yatiyäwi	-4684
kawk	-4685
zcan	-4686
▁baj	-4687
▁armas	-4688
▁rechaz	-4689
▁tengas	-4690
▁escrituras	-4691
▁pú	-4692
▁arsuñ	-4693
▁kallt	-4694
▁siguió	-4695
▁amasías	-4696
▁intelig	-4697
▁takeniw	-4698
▁amorreos	-4699
▁catuntas	-4700
tapa	-4701
▁nat	-4702
quejj	-4703
▁deja	-4704
▁velo	-4705
▁patio	-4706
▁sumanc	-4707
▁prision	-4708
▁jakenacar	-4709
añan	-4710
▁bor	-4711
▁oco	-4712
apcän	-4713
tenta	-4714
▁daño	-4715
▁estás	-4716
▁plant	-4717
▁sabes	-4718
▁sidón	-4719
▁aldeas	-4720
onacampi	-4721
▁doscientos	-4722
irin	-4723
▁pró	-4724
▁ocho	-4725
▁cunas	-4726
▁usuch	-4727
▁chawll	-4728
anacaruw	-4729
▁saraway	-4730
▁aum	-4731
tarse	-4732
▁khar	-4733
▁pasa	-4734
▁thuj	-4735
▁urut	-4736
▁apsun	-4737
▁jezre	-4738
▁traer	-4739
▁uraqix	-4740
▁hacerlo	-4741
▁parientes	-4742
äc	-4743
ïsc	-4744
añama	-4745
▁pedir	-4746
▁pilato	-4747
▁estable	-4748
▁reyirojj	-4749
taba	-4750
apkir	-4751
taqui	-4752
▁malos	-4753
▁amalec	-4754
▁estará	-4755
▁reyiru	-4756
▁altares	-4757
▁estamos	-4758
▁morirán	-4759
▁katuntat	-4760
▁ama	-4761
▁dig	-4762
▁hues	-4763
▁waña	-4764
atäcän	-4765
▁phuqt	-4766
irinaka	-4767
▁simeón	-4768
▁yuqapax	-4769
▁diosaruw	-4770
▁jaqinaka	-4771
▁urunakan	-4772
ïwa	-4773
▁déb	-4774
▁walï	-4775
asipjje	-4776
▁dejado	-4777
▁machak	-4778
▁repugn	-4779
▁uchäna	-4780
▁broncet	-4781
▁jawirat	-4782
pá	-4783
bán	-4784
▁oh	-4785
años	-4786
tiri	-4787
▁berna	-4788
▁orakep	-4789
▁preocu	-4790
▁jupanacaru	-4791
ärm	-4792
itaw	-4793
▁elí	-4794
iraki	-4795
▁cens	-4796
▁jiwjj	-4797
▁qinay	-4798
▁serás	-4799
▁supay	-4800
▁tramp	-4801
▁visit	-4802
▁fueran	-4803
▁servid	-4804
▁ucanacan	-4805
▁chekpachansa	-4806
hi	-4807
ïtam	-4808
▁bro	-4809
añanak	-4810
▁signi	-4811
▁arsüna	-4812
▁perdón	-4813
▁conducta	-4814
▁orakenquir	-4815
▁luräwinakap	-4816
▁qhispiyasiñ	-4817
ite	-4818
chen	-4819
ácti	-4820
▁sor	-4821
▁cruz	-4822
▁tunk	-4823
istawa	-4824
▁capit	-4825
▁grasa	-4826
▁guard	-4827
▁provo	-4828
▁amigos	-4829
▁llevado	-4830
achasisin	-4831
▁descendencia	-4832
tivo	-4833
▁agar	-4834
▁añad	-4835
▁grup	-4836
▁cometi	-4837
▁markap	-4838
▁pondré	-4839
▁egiptot	-4840
▁utaparuw	-4841
▁éufrates	-4842
▁israelitanakan	-4843
dose	-4844
istr	-4845
▁ina	-4846
metros	-4847
▁hayan	-4848
▁jakon	-4849
▁jebus	-4850
▁lanza	-4851
▁leyes	-4852
▁tuqiw	-4853
▁wawajj	-4854
anacajja	-4855
▁trompet	-4856
▁vestido	-4857
▁chiqapar	-4858
▁mayampsa	-4859
ber	-4860
com	-4861
▁siw	-4862
▁somb	-4863
ajjajj	-4864
tatitun	-4865
▁jumaruw	-4866
▁ajjsarcañ	-4867
▁sinaí	-4868
▁acercó	-4869
▁cabrit	-4870
▁prácti	-4871
▁hablado	-4872
▁setenta	-4873
▁tomaron	-4874
▁yapunak	-4875
sí	-4876
adab	-4877
ares	-4878
▁kot	-4879
▁apoy	-4880
▁diga	-4881
▁caleb	-4882
▁manten	-4883
▁ukkhaw	-4884
▁nayräjj	-4885
▁taypina	-4886
▁benjamin	-4887
▁bos	-4888
suway	-4889
taban	-4890
▁amón	-4891
▁pant	-4892
▁demon	-4893
▁varón	-4894
▁ajanup	-4895
▁chekap	-4896
▁cuarto	-4897
▁ukatpï	-4898
anacapan	-4899
▁cometido	-4900
▁poderoso	-4901
▁naqhantay	-4902
yati	-4903
tarán	-4904
atätap	-4905
▁direc	-4906
▁razón	-4907
▁uraqit	-4908
▁iglesia	-4909
▁confianza	-4910
haz	-4911
mal	-4912
xäs	-4913
atar	-4914
ispa	-4915
▁kup	-4916
▁nov	-4917
▁sed	-4918
ipjje	-4919
íamos	-4920
▁arus	-4921
▁aseg	-4922
▁esqu	-4923
▁tupt	-4924
askani	-4925
▁quiri	-4926
▁vivía	-4927
▁dejaron	-4928
jichhasti	-4929
ñapataqui	-4930
anacapampi	-4931
▁israelitanakar	-4932
äkas	-4933
▁tur	-4934
asipki	-4935
kunjäm	-4936
▁ajayu	-4937
▁lleno	-4938
▁maran	-4939
▁chiqap	-4940
▁perfum	-4941
aractawa	-4942
▁uywatap	-4943
▁murieron	-4944
isf	-4945
ensa	-4946
▁inc	-4947
▁arun	-4948
▁mayt	-4949
▁balac	-4950
atpacha	-4951
▁disper	-4952
▁gritos	-4953
▁pachpaw	-4954
▁sentado	-4955
▁ucarojj	-4956
apjjaraqui	-4957
▁mensajeros	-4958
▁sacerdotejj	-4959
▁on	-4960
jimo	-4961
itäta	-4962
▁naci	-4963
irusti	-4964
▁furor	-4965
anaktix	-4966
▁ukarux	-4967
▁prójimo	-4968
▁mardoqueo	-4969
tón	-4970
añat	-4971
▁utjn	-4972
▁arsüw	-4973
▁honra	-4974
▁lurta	-4975
▁maysa	-4976
▁eterna	-4977
▁ezequi	-4978
▁gobier	-4979
▁profun	-4980
▁sipana	-4981
▁nanakan	-4982
▁testigo	-4983
▁imantasiñ	-4984
axax	-4985
▁usc	-4986
ables	-4987
▁aser	-4988
▁elim	-4989
▁supo	-4990
▁vivo	-4991
▁buscar	-4992
▁chikaw	-4993
▁humano	-4994
▁hubiera	-4995
▁janirac	-4996
▁axsarkañ	-4997
itó	-4998
idió	-4999
itayna	-5000
▁jawsay	-5001
▁satisf	-5002
apjjätam	-5003
▁trompeta	-5004
▁kamachinak	-5005
▁lad	-5006
äquis	-5007
▁iban	-5008
tayäna	-5009
▁chimp	-5010
▁judea	-5011
▁lleva	-5012
▁quita	-5013
▁sopor	-5014
äcaspas	-5015
▁phichh	-5016
▁sabemos	-5017
▁varones	-5018
apjjaraqu	-5019
▁saraquiwa	-5020
▁diosanakar	-5021
itï	-5022
▁oc	-5023
▁div	-5024
▁phuq	-5025
▁firme	-5026
arakïta	-5027
▁criado	-5028
▁hierba	-5029
▁yokall	-5030
▁sapxäna	-5031
▁sucedió	-5032
▁acamparon	-5033
ukt	-5034
allas	-5035
amasa	-5036
apata	-5037
orojj	-5038
ancqui	-5039
asinwa	-5040
chejja	-5041
tanjja	-5042
▁creen	-5043
▁extre	-5044
asipqui	-5045
▁estuvo	-5046
▁bendición	-5047
▁uñjasinsti	-5048
sm	-5049
▁bes	-5050
▁sel	-5051
▁usk	-5052
arles	-5053
▁quri	-5054
▁felip	-5055
▁mitad	-5056
▁natán	-5057
▁juzgar	-5058
▁suerte	-5059
▁sutini	-5060
▁trabaj	-5061
▁ocozías	-5062
▁circuncid	-5063
▁maldición	-5064
▁siskatayna	-5065
iña	-5066
wal	-5067
ezer	-5068
▁cien	-5069
anïpjj	-5070
asirak	-5071
▁compr	-5072
▁diles	-5073
▁pesar	-5074
▁tamar	-5075
▁deshon	-5076
▁engend	-5077
▁nayräx	-5078
▁saraquituwa	-5079
▁nayrakatapana	-5080
esas	-5081
▁oyó	-5082
▁vec	-5083
ellos	-5084
▁booz	-5085
▁deci	-5086
▁jakt	-5087
▁seré	-5088
apxsma	-5089
ürusti	-5090
▁comet	-5091
▁jaqiw	-5092
entaron	-5093
▁bendec	-5094
▁buscan	-5095
▁cebada	-5096
▁purïna	-5097
▁decirle	-5098
▁khathat	-5099
▁khithäna	-5100
▁ukapachaxa	-5101
osas	-5102
▁doy	-5103
ankki	-5104
▁burl	-5105
▁roca	-5106
▁phokt	-5107
apjjetu	-5108
▁tablas	-5109
▁victoria	-5110
▁saskakïnwa	-5111
nwa	-5112
ïtwa	-5113
▁saf	-5114
▁etio	-5115
▁viva	-5116
anejja	-5117
▁haces	-5118
▁verlo	-5119
▁cayunac	-5120
▁egipcio	-5121
▁escucha	-5122
▁qhathat	-5123
▁siscäna	-5124
tales	-5125
▁ríos	-5126
ipansa	-5127
irista	-5128
▁atrio	-5129
▁march	-5130
anacamp	-5131
▁especi	-5132
iraquïna	-5133
▁comerán	-5134
▁estrell	-5135
▁micaías	-5136
▁uñstäna	-5137
anacaparu	-5138
asipjjani	-5139
▁valientes	-5140
cunapachatejj	-5141
!,	-5142
aso	-5143
pen	-5144
tico	-5145
jjewa	-5146
onías	-5147
xaruw	-5148
apxpan	-5149
▁elise	-5150
▁trata	-5151
apjjeta	-5152
▁gedeón	-5153
▁jacañap	-5154
▁tucupjj	-5155
▁purisinsti	-5156
▁jaqinakaruw	-5157
▁pozo	-5158
▁espar	-5159
▁utjatap	-5160
▁taqpachan	-5161
▁maravillas	-5162
▁alm	-5163
▁ard	-5164
▁ras	-5165
▁anun	-5166
▁invo	-5167
▁chhux	-5168
▁judiö	-5169
cjjapjj	-5170
ärmanth	-5171
▁lluvia	-5172
▁pablor	-5173
israelit	-5174
▁hablaba	-5175
▁semejan	-5176
▁profecía	-5177
irinacasti	-5178
▁jakenacasa	-5179
eno	-5180
cuán	-5181
jïsa	-5182
▁cus	-5183
▁sema	-5184
iristi	-5185
▁kenay	-5186
▁lurata	-5187
anakapat	-5188
▁noticia	-5189
▁tokenac	-5190
▁uñjasinjja	-5191
uqu	-5192
▁fl	-5193
▁vie	-5194
▁exam	-5195
▁hago	-5196
▁pasó	-5197
▁acaso	-5198
▁arran	-5199
apxatap	-5200
▁buenas	-5201
▁marido	-5202
▁ukchañ	-5203
▁caballo	-5204
▁janchin	-5205
▁chiqpach	-5206
▁awkipänwa	-5207
▁siguieron	-5208
cil	-5209
bles	-5210
▁alay	-5211
▁culp	-5212
ipcäna	-5213
tencia	-5214
▁pusin	-5215
▁cortin	-5216
▁huesos	-5217
▁partes	-5218
▁testigos	-5219
▁it	-5220
▁ye	-5221
date	-5222
▁jals	-5223
▁siti	-5224
▁ñach	-5225
▁cargo	-5226
▁quiso	-5227
▁vigil	-5228
▁chhiqh	-5229
▁levanta	-5230
ayä	-5231
uri	-5232
cuna	-5233
▁gus	-5234
apana	-5235
nayaw	-5236
ullak	-5237
xänwa	-5238
▁laym	-5239
▁uksa	-5240
apjjet	-5241
▁jaqit	-5242
▁labán	-5243
▁banque	-5244
▁cunayman	-5245
▁violencia	-5246
▁filisteonak	-5247
ne	-5248
achj	-5249
▁adul	-5250
▁phar	-5251
endido	-5252
▁churi	-5253
▁hadad	-5254
▁llena	-5255
▁vivió	-5256
▁jichha	-5257
▁salvar	-5258
▁arsuway	-5259
▁corderos	-5260
▁encontró	-5261
▁obedecer	-5262
▁destruido	-5263
▁fortaleza	-5264
▁prometido	-5265
ag	-5266
ica	-5267
mes	-5268
ïsk	-5269
▁arsu	-5270
▁ijma	-5271
puesto	-5272
▁adver	-5273
▁asomb	-5274
▁saray	-5275
camasti	-5276
▁luqtas	-5277
▁sirviñ	-5278
▁marcana	-5279
▁extranjero	-5280
▁jerusalenan	-5281
oria	-5282
toles	-5283
apxtam	-5284
atäkän	-5285
unakap	-5286
▁nanak	-5287
▁sutin	-5288
▁bendic	-5289
▁llamct	-5290
▁visión	-5291
äwinakap	-5292
▁achunac	-5293
▁ninampi	-5294
▁recibido	-5295
▁ayllunkir	-5296
kip	-5297
mun	-5298
anjam	-5299
genes	-5300
inieb	-5301
▁uscu	-5302
▁sober	-5303
▁vacas	-5304
▁tinieb	-5305
▁wakisk	-5306
▁askinak	-5307
▁wawanac	-5308
cä	-5309
asïta	-5310
zados	-5311
▁dirá	-5312
ampita	-5313
▁judas	-5314
▁llamkt	-5315
▁parece	-5316
▁payani	-5317
▁cuernos	-5318
▁fuertes	-5319
▁mejores	-5320
▁refugio	-5321
▁uqhamawa	-5322
▁diosarojj	-5323
▁jupanacarusti	-5324
fel	-5325
rey	-5326
pajja	-5327
▁anti	-5328
▁eleg	-5329
▁inas	-5330
▁sutix	-5331
▁jutani	-5332
▁camachi	-5333
▁waljaniw	-5334
▁tinieblas	-5335
▁cualquiera	-5336
irap	-5337
käta	-5338
▁ramá	-5339
▁rico	-5340
apkäna	-5341
araquïy	-5342
▁expuls	-5343
▁presente	-5344
jjaraquini	-5345
▁apóstoles	-5346
riñ	-5347
▁po	-5348
uros	-5349
▁zeb	-5350
▁amst	-5351
▁dese	-5352
▁romp	-5353
▁vean	-5354
▁harás	-5355
▁sallk	-5356
▁comand	-5357
▁extend	-5358
▁motivo	-5359
▁sutejj	-5360
jichhajj	-5361
▁iz	-5362
ujll	-5363
▁palm	-5364
▁hagas	-5365
▁jinch	-5366
▁oídos	-5367
▁tocar	-5368
achasiñ	-5369
atjamat	-5370
▁amonit	-5371
▁tuqiruw	-5372
▁yapunac	-5373
▁montañas	-5374
▁sarnaker	-5375
▁ukapacha	-5376
alel	-5377
erro	-5378
cäyät	-5379
▁vivan	-5380
▁isinac	-5381
▁tercer	-5382
▁faraonan	-5383
▁promesas	-5384
▁tatituru	-5385
▁llaquisiñ	-5386
▁taypinjja	-5387
inar	-5388
itajj	-5389
uesta	-5390
irakiw	-5391
kaspas	-5392
▁censo	-5393
▁dueño	-5394
▁utach	-5395
▁munäna	-5396
▁puedes	-5397
▁jilatanaca	-5398
▁jumanacaru	-5399
▁wawanakapa	-5400
▁yanapirinak	-5401
iph	-5402
▁coré	-5403
▁cull	-5404
▁jact	-5405
▁paso	-5406
▁piso	-5407
cisión	-5408
umarap	-5409
▁arunt	-5410
▁ramas	-5411
▁podría	-5412
▁siquén	-5413
▁toketjja	-5414
▁khepatsti	-5415
▁destrucción	-5416
▁jakenacampi	-5417
▁jerusalenar	-5418
wañ	-5419
▁kon	-5420
antir	-5421
▁crón	-5422
▁mari	-5423
qhitis	-5424
▁bases	-5425
▁centí	-5426
▁caldeos	-5427
▁continu	-5428
▁orakena	-5429
▁sarakip	-5430
jumanakax	-5431
dem	-5432
▁id	-5433
acti	-5434
▁num	-5435
anïna	-5436
aquir	-5437
hanán	-5438
▁caus	-5439
▁dirán	-5440
▁espal	-5441
ampiruw	-5442
▁eterno	-5443
▁janïraw	-5444
▁entregado	-5445
▁semejante	-5446
▁uraqinakap	-5447
akip	-5448
imti	-5449
▁vid	-5450
racwa	-5451
▁muyt	-5452
▁usur	-5453
▁amtañ	-5454
▁confir	-5455
▁siquem	-5456
▁chachar	-5457
▁chhujll	-5458
▁señales	-5459
▁volveré	-5460
▁tantachasïw	-5461
▁cunanacatejj	-5462
ahora	-5463
quirist	-5464
▁sallqj	-5465
▁santos	-5466
▁uñjiri	-5467
▁vienen	-5468
irinakar	-5469
▁entender	-5470
▁haciendo	-5471
▁sacerdoter	-5472
▁wawanakapax	-5473
uct	-5474
udas	-5475
intas	-5476
▁copa	-5477
▁quitó	-5478
▁utjani	-5479
äpjjänwa	-5480
▁guerran	-5481
▁marcasti	-5482
araquïtawa	-5483
▁jesusarojj	-5484
äwir	-5485
▁qut	-5486
▁gozo	-5487
▁llij	-5488
▁uvas	-5489
▁gabaa	-5490
▁jayar	-5491
▁limpi	-5492
▁willj	-5493
äkaspas	-5494
▁isacar	-5495
▁kullak	-5496
▁produc	-5497
▁chuymap	-5498
▁cananeos	-5499
▁tatitutak	-5500
▁israelitanak	-5501
qar	-5502
äcän	-5503
▁gue	-5504
ieras	-5505
initi	-5506
▁ases	-5507
▁asun	-5508
▁blan	-5509
▁mira	-5510
▁silo	-5511
anidad	-5512
▁ataqu	-5513
▁lamar	-5514
▁mando	-5515
▁calles	-5516
▁gabaón	-5517
▁jawira	-5518
▁quiera	-5519
▁reconc	-5520
▁recuer	-5521
▁desapar	-5522
▁mananti	-5523
aractajja	-5524
▁abimélec	-5525
▁crónicas	-5526
▁convertir	-5527
▁enseñanza	-5528
▁yatichäwinak	-5529
naya	-5530
▁lám	-5531
▁pis	-5532
▁jawq	-5533
antäna	-5534
▁humil	-5535
▁qhuru	-5536
▁encend	-5537
▁abimelec	-5538
erio	-5539
urux	-5540
▁lím	-5541
▁rut	-5542
jetos	-5543
▁mani	-5544
▁amado	-5545
▁patjj	-5546
▁sista	-5547
amampiw	-5548
▁monedas	-5549
▁seguida	-5550
▁vendrán	-5551
▁columnas	-5552
ici	-5553
xam	-5554
▁raí	-5555
▁saph	-5556
asajja	-5557
endito	-5558
ipxani	-5559
▁llaquis	-5560
atapatsti	-5561
▁ukapachax	-5562
▁caballería	-5563
▁juchanacap	-5564
▁fer	-5565
▁lik	-5566
▁mía	-5567
▁juez	-5568
▁media	-5569
▁palom	-5570
nayasti	-5571
▁brazos	-5572
▁gilgal	-5573
▁reunió	-5574
▁centime	-5575
▁quieres	-5576
▁quiriat	-5577
▁sarnaqir	-5578
▁centímetros	-5579
▁yatichäwinac	-5580
ikh	-5581
rab	-5582
käyät	-5583
▁adel	-5584
anipjj	-5585
▁injus	-5586
▁llama	-5587
▁nueva	-5588
▁morirá	-5589
▁ayllunk	-5590
▁sarxäna	-5591
▁inocente	-5592
▁lurayäna	-5593
▁marcaruw	-5594
▁murallas	-5595
▁destierro	-5596
▁jaqinakat	-5597
▁sarjjapjj	-5598
▁israelitanacan	-5599
ha	-5600
son	-5601
cäta	-5602
dras	-5603
llos	-5604
ayasa	-5605
▁come	-5606
quista	-5607
▁barco	-5608
▁khoru	-5609
▁nazar	-5610
▁nubes	-5611
▁cuándo	-5612
▁querub	-5613
▁samart	-5614
▁chekana	-5615
▁jutasin	-5616
▁nanakar	-5617
aruraquiw	-5618
▁apthapis	-5619
▁chhaqtay	-5620
xan	-5621
aquí	-5622
▁quip	-5623
ampiwa	-5624
▁altos	-5625
▁catun	-5626
▁coloc	-5627
▁exter	-5628
▁llega	-5629
▁malas	-5630
▁cintur	-5631
▁recibió	-5632
añajjataqui	-5633
▁sapxarakïnwa	-5634
axan	-5635
▁rod	-5636
riñch	-5637
▁capa	-5638
yatich	-5639
▁glori	-5640
▁menor	-5641
▁saque	-5642
▁siski	-5643
▁chiqaw	-5644
▁cosech	-5645
▁dejará	-5646
▁esdras	-5647
▁pensar	-5648
▁sirios	-5649
▁llevaba	-5650
▁ucanjja	-5651
▁uñjasax	-5652
▁ukanakan	-5653
▁jilatanaka	-5654
▁wilañchanak	-5655
ben	-5656
quiy	-5657
todo	-5658
▁apod	-5659
▁pros	-5660
▁tump	-5661
éramos	-5662
▁ejemp	-5663
▁maced	-5664
▁podía	-5665
▁sustj	-5666
▁jakask	-5667
▁maynir	-5668
▁benaías	-5669
▁nayaruw	-5670
anakapasti	-5671
irinakarux	-5672
▁yokapänwa	-5673
gué	-5674
▁na	-5675
igas	-5676
osos	-5677
▁ged	-5678
▁joi	-5679
▁mel	-5680
▁rom	-5681
▁chin	-5682
▁cuch	-5683
▁miel	-5684
▁recu	-5685
▁barca	-5686
kunatsa	-5687
▁ankäjj	-5688
▁llakis	-5689
▁recono	-5690
araquitu	-5691
▁mayampi	-5692
▁interior	-5693
▁saraquim	-5694
quisa	-5695
▁khepa	-5696
▁ucqha	-5697
▁josean	-5698
▁oraket	-5699
▁pelear	-5700
▁tuvieron	-5701
▁marcanaca	-5702
▁ukchañkamasti	-5703
acam	-5704
ampï	-5705
▁cue	-5706
▁goz	-5707
asisk	-5708
▁anda	-5709
▁sexu	-5710
amarux	-5711
apkäta	-5712
▁chhij	-5713
▁flech	-5714
▁mente	-5715
▁multi	-5716
▁oblig	-5717
▁pidió	-5718
▁sipit	-5719
▁contam	-5720
▁pondrá	-5721
▁combate	-5722
▁escapar	-5723
▁orakejj	-5724
▁reyirux	-5725
▁secreto	-5726
▁abundancia	-5727
ioso	-5728
anipx	-5729
cidos	-5730
apcama	-5731
apquiti	-5732
▁pongan	-5733
▁practi	-5734
ataynati	-5735
apjjtajja	-5736
atapatjja	-5737
▁ucanacsa	-5738
▁circuncisión	-5739
▁conocimiento	-5740
▁descendiente	-5741
úa	-5742
asiy	-5743
▁dep	-5744
▁jamp	-5745
▁pedr	-5746
▁medía	-5747
▁sepan	-5748
▁verán	-5749
▁litros	-5750
▁sartay	-5751
▁defecto	-5752
▁orakeru	-5753
▁chhaktay	-5754
▁profetax	-5755
he	-5756
uqh	-5757
arla	-5758
enden	-5759
tense	-5760
▁salvo	-5761
▁munqui	-5762
▁awkipan	-5763
▁jonatan	-5764
▁janitejj	-5765
▁orakenjja	-5766
▁reunieron	-5767
▁caballonak	-5768
▁recibieron	-5769
▁nayataquejj	-5770
uden	-5771
▁púr	-5772
amanï	-5773
gados	-5774
jumax	-5775
▁dile	-5776
▁jakë	-5777
▁qhur	-5778
▁tocó	-5779
apksma	-5780
ayasir	-5781
▁diste	-5782
▁olivo	-5783
▁predi	-5784
▁separ	-5785
irinaca	-5786
▁luqtat	-5787
▁púrpura	-5788
levántate	-5789
▁chuymapan	-5790
▁construir	-5791
▁necesario	-5792
▁comenzaron	-5793
▁muspharcañ	-5794
▁trescientos	-5795
apjjañamataqui	-5796
ayir	-5797
▁uqh	-5798
▁apjj	-5799
▁cesar	-5800
▁forti	-5801
▁leche	-5802
▁consol	-5803
▁recibe	-5804
▁wawapa	-5805
▁flechas	-5806
▁janitix	-5807
▁presentó	-5808
▁tribunac	-5809
▁campament	-5810
añataquejja	-5811
▁luräwinacap	-5812
jjam	-5813
mira	-5814
▁adi	-5815
▁asaf	-5816
▁kori	-5817
▁jariq	-5818
▁pecho	-5819
▁satan	-5820
▁ukaru	-5821
▁bueyes	-5822
▁jithiq	-5823
▁rebaño	-5824
▁sabrán	-5825
▁naqhant	-5826
▁sapxsma	-5827
▁saraqat	-5828
▁semaías	-5829
apxarakim	-5830
▁jaketejj	-5831
▁práctica	-5832
apxarakïta	-5833
▁lurapxäna	-5834
▁centimetron	-5835
cul	-5836
ipki	-5837
quip	-5838
estas	-5839
kaspa	-5840
medad	-5841
äwejj	-5842
▁mull	-5843
▁juyqh	-5844
▁qurit	-5845
atakixa	-5846
▁dester	-5847
▁quillt	-5848
▁reyimp	-5849
▁roboán	-5850
▁yuqapänwa	-5851
▁enfermedad	-5852
▁prisioneros	-5853
wali	-5854
ciera	-5855
▁avan	-5856
▁cere	-5857
▁luto	-5858
▁yapu	-5859
apajja	-5860
▁abram	-5861
▁abrán	-5862
▁afirm	-5863
▁asuer	-5864
▁digan	-5865
▁killt	-5866
▁mispá	-5867
▁persi	-5868
▁tukuñ	-5869
▁harina	-5870
▁isimpi	-5871
▁toketa	-5872
▁inciens	-5873
▁sarakim	-5874
▁maynitix	-5875
▁trabajar	-5876
ampiraquiw	-5877
▁guerreros	-5878
▁jiwarayäna	-5879
▁ucanacatjja	-5880
aki	-5881
eke	-5882
ayin	-5883
utjja	-5884
▁cuen	-5885
▁isin	-5886
▁ucaw	-5887
▁alkat	-5888
xapxani	-5889
▁arroyo	-5890
▁jalant	-5891
▁cabrito	-5892
▁orgullo	-5893
▁wasitatwa	-5894
▁chacharojj	-5895
▁tatiturojj	-5896
▁jesucriston	-5897
▁ja	-5898
▁mues	-5899
▁jakew	-5900
▁pagan	-5901
▁cuello	-5902
▁khitin	-5903
▁pataka	-5904
▁quería	-5905
▁tunkan	-5906
▁ventan	-5907
▁diosapa	-5908
▁tendrás	-5909
▁apareció	-5910
▁fortific	-5911
▁jaytaway	-5912
▁sepultur	-5913
▁estatutos	-5914
▁reconcili	-5915
▁kimsaqallqu	-5916
axw	-5917
▁suyo	-5918
asitap	-5919
▁arsup	-5920
▁insul	-5921
▁apoder	-5922
▁celebr	-5923
▁quedan	-5924
irakïnwa	-5925
▁cortina	-5926
▁ejemplo	-5927
▁jacobon	-5928
▁johanán	-5929
▁phisqan	-5930
▁tristeza	-5931
▁yokapajj	-5932
jani	-5933
▁inm	-5934
ämati	-5935
▁detr	-5936
▁enti	-5937
▁contó	-5938
▁subió	-5939
▁torre	-5940
▁judiöp	-5941
▁apnaqañ	-5942
▁egiptor	-5943
▁jiwayir	-5944
▁regresó	-5945
▁saraqui	-5946
asipjjamti	-5947
▁levaduran	-5948
▁moisesampi	-5949
▁wawanacapajj	-5950
▁carga	-5951
▁juykh	-5952
▁arriba	-5953
▁tukupx	-5954
▁apartado	-5955
▁escuchar	-5956
▁laycusti	-5957
▁realidad	-5958
▁uqhamaru	-5959
▁jupanakaw	-5960
▁consagrado	-5961
!'	-5962
ju	-5963
▁'¡	-5964
eles	-5965
iqip	-5966
▁ñic	-5967
caspa	-5968
upxam	-5969
▁joram	-5970
▁pelig	-5971
▁uñtan	-5972
▁único	-5973
▁detrás	-5974
▁hitita	-5975
▁perfec	-5976
▁cristor	-5977
▁izquier	-5978
▁orgullos	-5979
▁jumanacat	-5980
▁pecadores	-5981
▁permanece	-5982
cay	-5983
como	-5984
tani	-5985
atapun	-5986
pansti	-5987
▁qhisp	-5988
aracpan	-5989
▁chicaw	-5990
▁cullac	-5991
▁habría	-5992
▁jakeru	-5993
anakapas	-5994
tatitojj	-5995
▁yatisin	-5996
▁puncunac	-5997
▁responder	-5998
▁chiqpachansa	-5999
alwa	-6000
amap	-6001
egos	-6002
selo	-6003
ascta	-6004
▁askï	-6005
▁míos	-6006
▁tama	-6007
▁utar	-6008
▁abajo	-6009
▁devor	-6010
▁pilat	-6011
▁silen	-6012
▁tucuñ	-6013
▁urías	-6014
▁descar	-6015
▁sombra	-6016
araquïma	-6017
▁arsutap	-6018
▁pastores	-6019
▁profetan	-6020
▁construyó	-6021
atäñapataqui	-6022
eas	-6023
▁satä	-6024
▁quede	-6025
▁quipca	-6026
▁templon	-6027
▁carronak	-6028
asma	-6029
dado	-6030
irás	-6031
▁mag	-6032
▁zor	-6033
ayani	-6034
ätasa	-6035
▁apas	-6036
▁pone	-6037
▁dejen	-6038
aparjam	-6039
apxänwa	-6040
rección	-6041
▁terrib	-6042
▁utjnuqt	-6043
▁qalltäna	-6044
▁preparado	-6045
▁markanakar	-6046
if	-6047
ïx	-6048
akam	-6049
uelo	-6050
▁alw	-6051
▁hir	-6052
remos	-6053
ämawa	-6054
▁jawk	-6055
▁plat	-6056
▁sien	-6057
▁thaq	-6058
asimti	-6059
▁arcap	-6060
▁conce	-6061
▁korit	-6062
▁joacín	-6063
▁parlat	-6064
▁asquich	-6065
anacamajj	-6066
▁generación	-6067
▁jupanakamp	-6068
▁moisesarojj	-6069
jen	-6070
kuna	-6071
▁saw	-6072
rosti	-6073
timos	-6074
▁anat	-6075
▁labr	-6076
▁mala	-6077
▁sale	-6078
▁jefté	-6079
▁jicjj	-6080
▁jorán	-6081
▁ramot	-6082
▁tanta	-6083
▁tembl	-6084
▁yuqap	-6085
atatsti	-6086
▁arsuta	-6087
▁desper	-6088
▁lurqui	-6089
▁criados	-6090
▁enfermo	-6091
▁objetos	-6092
asipxamti	-6093
▁cawqhanc	-6094
▁instante	-6095
▁kankañax	-6096
▁markasti	-6097
▁profundo	-6098
▁estrellas	-6099
▁markankirinak	-6100
▁aq	-6101
▁irá	-6102
▁isi	-6103
▁actu	-6104
▁atre	-6105
▁trig	-6106
▁ucwa	-6107
▁ukür	-6108
▁santa	-6109
▁wasit	-6110
anacata	-6111
▁juntos	-6112
▁absalon	-6113
▁prosper	-6114
anacapasa	-6115
▁taypinsti	-6116
▁awquinacap	-6117
▁sascaquïnwa	-6118
iza	-6119
jut	-6120
zan	-6121
▁né	-6122
cäti	-6123
idel	-6124
▁var	-6125
duras	-6126
inado	-6127
umbre	-6128
atapsa	-6129
istani	-6130
unakan	-6131
▁devol	-6132
▁funci	-6133
▁mayan	-6134
▁ucata	-6135
▁wawan	-6136
apxatam	-6137
▁churir	-6138
▁mentir	-6139
▁saykat	-6140
amataqui	-6141
amientos	-6142
▁leyinac	-6143
▁altísimo	-6144
▁príncipe	-6145
anakapampi	-6146
▁chachanak	-6147
ataquiraqui	-6148
▁ciertamente	-6149
▁juramentompi	-6150
▁enfr	-6151
▁luna	-6152
▁revel	-6153
▁toque	-6154
▁warmir	-6155
iraquini	-6156
▁llevaban	-6157
▁sentencia	-6158
▁nayrakatajj	-6159
ekh	-6160
caña	-6161
▁ner	-6162
aquín	-6163
gamos	-6164
itpan	-6165
▁apro	-6166
▁clar	-6167
tamjja	-6168
▁compl	-6169
▁desgr	-6170
▁envid	-6171
▁sirve	-6172
▁acacia	-6173
▁afirma	-6174
▁askich	-6175
▁buenos	-6176
▁corona	-6177
▁dejaré	-6178
▁joyadá	-6179
▁países	-6180
▁reinos	-6181
▁yänakap	-6182
▁banquete	-6183
▁escuchen	-6184
▁akapachan	-6185
▁mandamiento	-6186
▁sacerdotenakan	-6187
agen	-6188
etes	-6189
▁ger	-6190
▁ves	-6191
▁huer	-6192
▁urup	-6193
jumajj	-6194
▁pecar	-6195
▁warmi	-6196
▁imagen	-6197
▁juchap	-6198
▁wawanï	-6199
▁tatitus	-6200
▁jumanakatix	-6201
emí	-6202
clam	-6203
eres	-6204
imas	-6205
ites	-6206
▁ayr	-6207
atäni	-6208
▁awtj	-6209
▁barc	-6210
▁reyï	-6211
▁uñjc	-6212
ontera	-6213
▁asera	-6214
▁muera	-6215
▁uñsti	-6216
▁churapc	-6217
▁nombres	-6218
▁satisfe	-6219
▁apnaqäna	-6220
▁cumplido	-6221
▁frontera	-6222
▁pedrosti	-6223
▁silencio	-6224
▁jesusarux	-6225
▁sarakituwa	-6226
▁alaxpachankir	-6227
inuk	-6228
äkän	-6229
▁tap	-6230
ampit	-6231
ascani	-6232
amarojj	-6233
▁conven	-6234
asipcäna	-6235
▁primera	-6236
▁warmimp	-6237
▁allchhip	-6238
▁poderosos	-6239
▁chekanquir	-6240
▁thakhinjam	-6241
▁jaqinakampi	-6242
gará	-6243
käti	-6244
tasa	-6245
▁gri	-6246
▁via	-6247
kamax	-6248
ompiw	-6249
▁cama	-6250
tasina	-6251
▁caiga	-6252
▁chhekh	-6253
▁podrás	-6254
▁thakhi	-6255
▁vuelto	-6256
▁abiatar	-6257
▁mandado	-6258
▁maynïri	-6259
▁uñjapjj	-6260
▁yuqapaw	-6261
▁chuymani	-6262
▁demonios	-6263
▁markapar	-6264
ayañataqui	-6265
▁impuestos	-6266
▁munañanïñ	-6267
▁chuymampiw	-6268
▁nayraqatax	-6269
ale	-6270
ajjw	-6271
apxa	-6272
tura	-6273
▁hig	-6274
akama	-6275
ipqui	-6276
▁aram	-6277
▁cree	-6278
▁seas	-6279
▁arrod	-6280
▁conoz	-6281
quituti	-6282
tasinsti	-6283
▁urunjja	-6284
taw	-6285
til	-6286
ïni	-6287
alos	-6288
enos	-6289
iter	-6290
▁gom	-6291
▁jaz	-6292
nayan	-6293
▁actú	-6294
▁arab	-6295
▁carm	-6296
akamaw	-6297
orrach	-6298
▁jaqun	-6299
▁négue	-6300
▁recto	-6301
▁sirio	-6302
jjapjje	-6303
▁deseos	-6304
▁orilla	-6305
▁salvaj	-6306
▁vuelve	-6307
▁wastat	-6308
ataquiwa	-6309
jjapjjam	-6310
äwinacap	-6311
▁kusisiy	-6312
apkatayna	-6313
▁becerros	-6314
▁diosamax	-6315
▁sapjjsma	-6316
▁uqhamajj	-6317
▁sacrificionac	-6318
raqu	-6319
▁emb	-6320
endió	-6321
▁edad	-6322
▁jarc	-6323
▁qurp	-6324
decido	-6325
▁qhirw	-6326
▁sigue	-6327
atakisa	-6328
▁chekat	-6329
▁diosay	-6330
▁sumancañ	-6331
▁ucarusti	-6332
apï	-6333
fil	-6334
sis	-6335
tán	-6336
▁wax	-6337
añjam	-6338
▁ocup	-6339
tiende	-6340
▁dejes	-6341
▁masim	-6342
▁nueve	-6343
▁jithek	-6344
▁limpio	-6345
▁terror	-6346
▁juparuw	-6347
▁llevará	-6348
▁uywanak	-6349
▁cereales	-6350
▁salvador	-6351
▁encontraron	-6352
▁seiscientos	-6353
▁entendimiento	-6354
cr	-6355
art	-6356
zca	-6357
onia	-6358
amppach	-6359
▁argoll	-6360
▁desped	-6361
▁podemos	-6362
anakampiw	-6363
▁apanukut	-6364
▁culpable	-6365
▁ucarojja	-6366
▁ñankhach	-6367
▁respuesta	-6368
gón	-6369
irt	-6370
aruc	-6371
raba	-6372
▁och	-6373
▁waj	-6374
▁ñik	-6375
imote	-6376
▁abel	-6377
▁daba	-6378
▁pobr	-6379
▁pura	-6380
achach	-6381
unakax	-6382
▁litro	-6383
▁noemí	-6384
irakïna	-6385
▁multip	-6386
▁tomará	-6387
▁trampa	-6388
anakamax	-6389
▁echaron	-6390
▁jacobun	-6391
▁kawkïri	-6392
▁ochenta	-6393
▁ofreció	-6394
▁precios	-6395
▁semilla	-6396
aqhisiyat	-6397
yatichiri	-6398
añchatäpan	-6399
jjapjjänwa	-6400
▁acercaron	-6401
▁consejeros	-6402
jak	-6403
ure	-6404
zer	-6405
mpiw	-6406
tener	-6407
amaruw	-6408
▁sabía	-6409
▁salud	-6410
▁janiwa	-6411
▁extendió	-6412
▁ucanacwa	-6413
jjaraquïna	-6414
▁akatjamat	-6415
▁condenado	-6416
▁nakhantay	-6417
▁querubines	-6418
▁jakenacaruw	-6419
▁om	-6420
▁fui	-6421
▁nav	-6422
▁yaw	-6423
ampwa	-6424
inaka	-6425
xarux	-6426
äyätam	-6427
▁arnón	-6428
▁barro	-6429
▁brazo	-6430
▁difer	-6431
▁llenó	-6432
▁sentó	-6433
▁chhojj	-6434
▁joacaz	-6435
▁lurani	-6436
▁qhitin	-6437
▁timote	-6438
▁cusisiy	-6439
▁mantäna	-6440
▁carneros	-6441
▁comprend	-6442
▁diciendo	-6443
▁diosaxay	-6444
▁ovejanak	-6445
▁aceitempi	-6446
▁principales	-6447
▁sacrificiot	-6448
.)	-6449
ive	-6450
▁ed	-6451
pajj	-6452
▁azo	-6453
tidad	-6454
ätapa	-6455
ínive	-6456
▁alta	-6457
ampina	-6458
▁alcat	-6459
▁desob	-6460
▁viuda	-6461
jichhax	-6462
uchunak	-6463
▁lampar	-6464
khititix	-6465
▁jiwañap	-6466
▁mayisit	-6467
▁sapakat	-6468
▁nuwasïwin	-6469
▁qillqatan	-6470
▁ucanacampi	-6471
▁er	-6472
▁yu	-6473
atos	-6474
jach	-6475
ques	-6476
▁dob	-6477
miren	-6478
▁adiv	-6479
▁ahab	-6480
▁vale	-6481
▁desnu	-6482
▁janiy	-6483
▁meses	-6484
▁ánimo	-6485
aparusa	-6486
apjjpan	-6487
▁darles	-6488
▁telata	-6489
▁aseguro	-6490
▁ukxarux	-6491
▁vuelvan	-6492
▁ajjsarañ	-6493
▁diosanac	-6494
▁janiquiy	-6495
▁joseasti	-6496
▁phichhant	-6497
▁uqhamarus	-6498
▁levantaron	-6499
▁cuatrocientos	-6500
erv	-6501
sna	-6502
ígan	-6503
dense	-6504
quist	-6505
▁taqu	-6506
▁abrió	-6507
▁arsur	-6508
▁baruc	-6509
▁munap	-6510
▁panin	-6511
▁mayïna	-6512
▁wachuq	-6513
▁comprom	-6514
▁yaqhach	-6515
▁diosampi	-6516
▁necesita	-6517
▁lurañanak	-6518
▁preguntar	-6519
▁wiñayataqui	-6520
sab	-6521
apwa	-6522
rían	-6523
▁atr	-6524
▁tum	-6525
amjja	-6526
ampin	-6527
atías	-6528
awayi	-6529
▁arco	-6530
▁pank	-6531
▁pued	-6532
asïnwa	-6533
iertos	-6534
▁andar	-6535
▁escap	-6536
▁final	-6537
▁instr	-6538
▁jaket	-6539
▁sarac	-6540
▁thujr	-6541
bendito	-6542
▁luräta	-6543
jjarusti	-6544
▁ajayojj	-6545
▁churani	-6546
▁nakhant	-6547
▁resplan	-6548
▁tuncani	-6549
▁alabanza	-6550
▁hablando	-6551
▁kalltäna	-6552
▁khitirus	-6553
▁maestros	-6554
▁munañanï	-6555
▁angelasti	-6556
▁ejerciton	-6557
▁tokenquir	-6558
▁kankañampi	-6559
▁inteligencia	-6560
▁hai	-6561
entar	-6562
unjat	-6563
▁anch	-6564
▁utjay	-6565
▁apartó	-6566
▁utanak	-6567
▁utapat	-6568
▁profund	-6569
▁sarakat	-6570
▁chuymajj	-6571
▁decretos	-6572
▁mensajero	-6573
kunapachatix	-6574
▁repugnantes	-6575
▁sacerdotenacan	-6576
og	-6577
isaw	-6578
▁ren	-6579
istin	-6580
▁amen	-6581
▁dorm	-6582
▁echó	-6583
▁jiwx	-6584
▁kala	-6585
amajja	-6586
▁axtas	-6587
▁disfr	-6588
▁jarek	-6589
pachawa	-6590
▁distin	-6591
▁esposo	-6592
▁gedeon	-6593
▁hebreo	-6594
▁panqar	-6595
▁recomp	-6596
asipxäta	-6597
▁bendijo	-6598
▁recoger	-6599
▁soldado	-6600
▁tercera	-6601
▁wasarar	-6602
▁diosaman	-6603
anacarusti	-6604
apxarakini	-6605
jumanacajj	-6606
▁amparapat	-6607
▁maynitejj	-6608
▁reconstru	-6609
▁trompetas	-6610
▁abd	-6611
▁apa	-6612
▁cán	-6613
▁rej	-6614
▁sef	-6615
▁ung	-6616
ampïs	-6617
karak	-6618
▁escr	-6619
▁nuwj	-6620
▁antio	-6621
▁munki	-6622
▁utjkx	-6623
▁arknaq	-6624
apunïnwa	-6625
cjjaniti	-6626
inacasti	-6627
▁templor	-6628
▁salomonan	-6629
▁importante	-6630
▁ucanacarojj	-6631
bia	-6632
ibu	-6633
▁uv	-6634
asat	-6635
chini	-6636
ecerá	-6637
kxapx	-6638
xapxi	-6639
▁serp	-6640
▁seír	-6641
▁churä	-6642
▁ciego	-6643
▁trans	-6644
▁aparte	-6645
▁asunto	-6646
▁ayllut	-6647
▁maynix	-6648
▁merari	-6649
▁munapc	-6650
▁oyeron	-6651
▁partir	-6652
▁podían	-6653
▁siguen	-6654
▁yattwa	-6655
apxätati	-6656
israelan	-6657
▁jaqitix	-6658
▁maestro	-6659
▁maynejj	-6660
▁prometi	-6661
▁tesoros	-6662
▁tokeruw	-6663
▁uñjasin	-6664
▁comieron	-6665
▁conocido	-6666
▁entraron	-6667
▁qhitirus	-6668
▁sinagoga	-6669
▁nayatakix	-6670
▁paciencia	-6671
▁profetajj	-6672
▁abandonado	-6673
▁enseñanzas	-6674
▁reconciliación	-6675
),	-6676
ikhi	-6677
asiña	-6678
▁tink	-6679
apkani	-6680
▁iquiñ	-6681
▁manch	-6682
▁sería	-6683
▁carpan	-6684
▁persia	-6685
▁ucqharu	-6686
▁cantidad	-6687
▁davidampi	-6688
▁markanakax	-6689
eca	-6690
jón	-6691
▁il	-6692
aray	-6693
gura	-6694
iyan	-6695
▁jed	-6696
▁sad	-6697
▁yäk	-6698
▁pirqa	-6699
▁ukxar	-6700
▁walik	-6701
achasin	-6702
ipjjani	-6703
▁cumple	-6704
▁falsos	-6705
▁queden	-6706
▁consejo	-6707
▁instrum	-6708
▁diosajja	-6709
▁uñjasïna	-6710
▁desgracia	-6711
▁izquierda	-6712
▁jupanacat	-6713
▁cunanactejj	-6714
▁sufrimiento	-6715
eru	-6716
mpi	-6717
rido	-6718
amawa	-6719
usión	-6720
▁elam	-6721
▁indi	-6722
▁khit	-6723
▁fiest	-6724
▁mullj	-6725
▁ropas	-6726
▁llenos	-6727
▁nínive	-6728
▁qullun	-6729
▁roboam	-6730
▁sallkj	-6731
▁sutipx	-6732
▁derramar	-6733
▁phiñasiñ	-6734
▁qallunak	-6735
▁vinieron	-6736
▁provincia	-6737
▁apanucupjj	-6738
esc	-6739
adán	-6740
ikiw	-6741
stru	-6742
▁lat	-6743
▁sop	-6744
cojja	-6745
tanti	-6746
unchh	-6747
▁iwxt	-6748
▁simp	-6749
quipan	-6750
jerusal	-6751
▁caerán	-6752
▁estatu	-6753
▁parlam	-6754
▁pisote	-6755
apjjañap	-6756
▁jumatak	-6757
▁phunchh	-6758
▁puriniñ	-6759
anacarusa	-6760
▁markapan	-6761
▁anunciado	-6762
cías	-6763
▁ahí	-6764
▁mah	-6765
▁rap	-6766
▁huir	-6767
ätasti	-6768
▁darle	-6769
▁manto	-6770
▁payïr	-6771
▁sarir	-6772
▁sumwa	-6773
▁conoce	-6774
▁maquir	-6775
▁qhipat	-6776
▁seguía	-6777
▁conocen	-6778
▁davidar	-6779
▁ucqhawa	-6780
▁yakhach	-6781
▁adelante	-6782
▁chacharu	-6783
▁significa	-6784
rada	-6785
▁hem	-6786
▁qhä	-6787
cados	-6788
smati	-6789
toral	-6790
▁acon	-6791
▁masi	-6792
▁pudo	-6793
▁umañ	-6794
emente	-6795
obabel	-6796
▁corre	-6797
▁culti	-6798
▁etiop	-6799
▁laban	-6800
▁nabat	-6801
▁venía	-6802
▁madián	-6803
▁record	-6804
▁saldrá	-6805
▁tarsis	-6806
▁jakejja	-6807
▁jezabel	-6808
▁mentira	-6809
▁sinagog	-6810
▁vientre	-6811
▁diosanak	-6812
▁nuwantañ	-6813
▁pectoral	-6814
▁pudieron	-6815
▁rectitud	-6816
▁nanacasti	-6817
▁ovejanaca	-6818
▁yanapirip	-6819
▁lurapjjäna	-6820
hón	-6821
titu	-6822
▁yes	-6823
arnos	-6824
▁disp	-6825
▁higo	-6826
▁ikiñ	-6827
▁jiwt	-6828
▁ocas	-6829
tieron	-6830
▁apsus	-6831
▁forma	-6832
▁kutiw	-6833
▁mayit	-6834
anacani	-6835
▁awquim	-6836
▁jutäna	-6837
▁salido	-6838
▁instruc	-6839
▁mayniru	-6840
▁sarasin	-6841
▁cancañam	-6842
▁ucanacata	-6843
apxarakïnwa	-6844
▁compañeros	-6845
äyä	-6846
añut	-6847
hijo	-6848
mayn	-6849
paxa	-6850
▁apx	-6851
▁dic	-6852
ganse	-6853
▁lago	-6854
▁leña	-6855
athati	-6856
▁asquï	-6857
▁mesul	-6858
▁parlx	-6859
▁safán	-6860
onarios	-6861
▁adorar	-6862
▁sentir	-6863
▁sistwa	-6864
▁umampi	-6865
apjjatap	-6866
ïpjjänwa	-6867
▁nayrïri	-6868
▁alimento	-6869
▁maldades	-6870
▁ninampiw	-6871
▁sirvirim	-6872
▁capitanes	-6873
▁dirección	-6874
▁maranïnwa	-6875
▁caballonac	-6876
▁vestiduras	-6877
▁funcionarios	-6878
▁ucanacarusti	-6879
▁bot	-6880
▁iwx	-6881
▁clan	-6882
äyätwa	-6883
▁ayuno	-6884
▁horno	-6885
▁puris	-6886
apjjewa	-6887
▁campaña	-6888
▁guersón	-6889
▁hilcías	-6890
▁awquipan	-6891
▁juchanak	-6892
▁mortales	-6893
▁waquicht	-6894
▁tatiturux	-6895
▁ucspachaw	-6896
bo	-6897
érf	-6898
alal	-6899
änxa	-6900
▁imá	-6901
▁khä	-6902
▁lla	-6903
▁neb	-6904
amaya	-6905
askir	-6906
askta	-6907
emías	-6908
istir	-6909
vayan	-6910
▁abis	-6911
▁cabo	-6912
▁ello	-6913
▁situ	-6914
▁yugo	-6915
▁asnos	-6916
▁astar	-6917
▁cruci	-6918
▁huérf	-6919
▁odian	-6920
▁suyos	-6921
irakiwa	-6922
▁asuero	-6923
▁establ	-6924
▁galile	-6925
▁mayach	-6926
▁néguev	-6927
▁respet	-6928
▁salter	-6929
▁último	-6930
apxaraki	-6931
▁humanos	-6932
▁satanás	-6933
▁creyeron	-6934
▁imágenes	-6935
▁laycojja	-6936
▁sarnakañ	-6937
▁sumankañ	-6938
▁ukarusti	-6939
anakaparuw	-6940
▁alimentos	-6941
▁unañchäwi	-6942
▁correspond	-6943
▁sarnaqäwip	-6944
▁ukanakarux	-6945
apjjaraquïta	-6946
asiñapataqui	-6947
▁contestaron	-6948
▁gobernantes	-6949
▁uñisirinakax	-6950
aces	-6951
▁fun	-6952
▁red	-6953
äwiru	-6954
▁akat	-6955
▁logr	-6956
▁ocul	-6957
▁tuve	-6958
inakar	-6959
▁darío	-6960
▁simey	-6961
▁antigu	-6962
▁uñjasi	-6963
▁embaraz	-6964
▁jiwasar	-6965
▁pondrás	-6966
▁terminó	-6967
▁phajjsina	-6968
▁alaxpachan	-6969
apxañamataki	-6970
▁marcanquiri	-6971
▁og	-6972
edos	-6973
ekep	-6974
tren	-6975
▁dor	-6976
▁gui	-6977
vamos	-6978
äniti	-6979
▁ajaz	-6980
▁cuán	-6981
▁arrep	-6982
▁calam	-6983
▁nabal	-6984
awayäna	-6985
▁ajjtas	-6986
▁arcnak	-6987
▁librar	-6988
▁morado	-6989
▁olivos	-6990
▁viudas	-6991
▁chuymax	-6992
▁complet	-6993
▁llegará	-6994
▁pequeño	-6995
▁isthapis	-6996
▁purinïna	-6997
▁amparapar	-6998
▁chacharuw	-6999
▁cusisipjj	-7000
▁zorobabel	-7001
▁babiloniankir	-7002
bé	-7003
jaq	-7004
jiw	-7005
viv	-7006
jeto	-7007
usinjja	-7008
▁impura	-7009
▁purini	-7010
▁janicha	-7011
▁arrodill	-7012
▁sarjjäna	-7013
▁terrenos	-7014
▁cancañajj	-7015
cin	-7016
▁ev	-7017
aquer	-7018
todos	-7019
▁qala	-7020
apquir	-7021
istaxa	-7022
▁admir	-7023
▁debes	-7024
▁edifi	-7025
▁janik	-7026
▁jutta	-7027
▁rever	-7028
apxañam	-7029
▁aprend	-7030
▁camell	-7031
▁khuchh	-7032
▁maynin	-7033
▁puedan	-7034
▁vivirá	-7035
idelidad	-7036
▁comprar	-7037
▁estarán	-7038
▁jumatix	-7039
▁camellos	-7040
▁jawsayan	-7041
▁punkunak	-7042
▁sirvirip	-7043
▁tranquil	-7044
▁encuentra	-7045
▁khithanuk	-7046
▁juparaquiw	-7047
▁profetasti	-7048
▁relaciones	-7049
▁luratanacam	-7050
dé	-7051
uf	-7052
tim	-7053
▁gar	-7054
añjja	-7055
eonak	-7056
▁debo	-7057
▁detu	-7058
▁fund	-7059
cäyäta	-7060
diosax	-7061
▁acajj	-7062
▁anoch	-7063
▁jallu	-7064
▁lejan	-7065
▁muere	-7066
añaxataki	-7067
▁pheskani	-7068
▁awquipänwa	-7069
▁instrucciones	-7070
jil	-7071
lón	-7072
suñ	-7073
taré	-7074
▁déc	-7075
boset	-7076
▁ciro	-7077
▁coat	-7078
▁kupi	-7079
▁lágr	-7080
▁sapc	-7081
▁temb	-7082
cjjeti	-7083
contes	-7084
▁amtay	-7085
▁camin	-7086
▁dices	-7087
▁luram	-7088
araktwa	-7089
también	-7090
▁llamas	-7091
▁uñatat	-7092
▁wasara	-7093
▁segunda	-7094
▁cortinas	-7095
▁mayampis	-7096
▁ucanacsti	-7097
▁alaxpachat	-7098
▁jaqinakamp	-7099
▁ofrecieron	-7100
▁jupanacampi	-7101
▁nayraqatapar	-7102
▁[	-7103
arle	-7104
itus	-7105
pana	-7106
▁kip	-7107
▁kus	-7108
▁cost	-7109
▁quen	-7110
jjaruw	-7111
▁cerro	-7112
▁plaga	-7113
▁usuchj	-7114
▁escudos	-7115
▁qhitäna	-7116
▁saraker	-7117
▁diosapan	-7118
▁creyentes	-7119
▁kunanakatix	-7120
▁nayrakatapanjja	-7121
xä	-7122
pat	-7123
uér	-7124
maes	-7125
quía	-7126
▁don	-7127
▁urü	-7128
anucu	-7129
▁lawa	-7130
apjjer	-7131
itakix	-7132
▁amnón	-7133
▁arreb	-7134
▁arres	-7135
▁gedal	-7136
▁manif	-7137
▁pampa	-7138
▁prisa	-7139
▁verme	-7140
▁wajjr	-7141
▁ataque	-7142
▁felipe	-7143
▁hablan	-7144
▁jacobux	-7145
▁jakthap	-7146
▁utaparu	-7147
▁katuntañ	-7148
▁salvajes	-7149
▁ucapacha	-7150
▁arunacapa	-7151
▁ukanaksti	-7152
▁quipcaraqui	-7153
▁pensamientos	-7154
▁hes	-7155
▁wis	-7156
▁difí	-7157
▁espl	-7158
▁ocur	-7159
urusti	-7160
▁cueva	-7161
▁natur	-7162
▁llorar	-7163
▁mirada	-7164
amarusti	-7165
▁ajayunac	-7166
▁parlatap	-7167
▁uraqiruw	-7168
araquïnjja	-7169
▁consultar	-7170
▁dispuesto	-7171
▁markanakat	-7172
▁ucanacaraqui	-7173
?,	-7174
lat	-7175
nor	-7176
pue	-7177
itsa	-7178
jjar	-7179
orce	-7180
orra	-7181
▁neg	-7182
▁tob	-7183
▁port	-7184
▁toct	-7185
▁brill	-7186
▁grita	-7187
▁mader	-7188
▁nabot	-7189
▁recub	-7190
▁sacar	-7191
apkätam	-7192
maestro	-7193
▁ciegos	-7194
▁descub	-7195
▁minist	-7196
▁adulter	-7197
▁altaran	-7198
▁catorce	-7199
▁confirm	-7200
▁debemos	-7201
▁impuros	-7202
▁inclinó	-7203
▁janikiy	-7204
▁kusisit	-7205
▁piensan	-7206
▁uñtasit	-7207
▁warmimpi	-7208
▁destruiré	-7209
▁humanidad	-7210
▁diosanacar	-7211
▁jakenacajja	-7212
ám	-7213
erot	-7214
ábol	-7215
▁sun	-7216
▁cupi	-7217
▁usuy	-7218
▁divid	-7219
apansti	-7220
▁yatxat	-7221
▁lawanak	-7222
▁mantien	-7223
▁parábol	-7224
▁llevados	-7225
atäpjjänwa	-7226
eba	-7227
pro	-7228
ches	-7229
iyar	-7230
stan	-7231
ukiw	-7232
ächi	-7233
▁ayw	-7234
▁fut	-7235
▁oye	-7236
▁taz	-7237
istas	-7238
ráneo	-7239
umpiw	-7240
▁gaza	-7241
▁sueg	-7242
arukiw	-7243
idores	-7244
▁cuerp	-7245
▁digno	-7246
▁ferez	-7247
▁incen	-7248
▁nadab	-7249
▁quebr	-7250
▁siemb	-7251
atäcäna	-7252
istasti	-7253
▁fieles	-7254
▁humana	-7255
▁vencer	-7256
anakamsa	-7257
qhitirac	-7258
▁cadenas	-7259
▁etiopía	-7260
▁luräwip	-7261
▁persigu	-7262
▁qalanak	-7263
▁vecinos	-7264
▁viñedos	-7265
apuniniwa	-7266
▁destruyó	-7267
▁ucanquir	-7268
▁estuvieron	-7269
▁jumanacatejj	-7270
crón	-7271
edec	-7272
irió	-7273
juma	-7274
anïpx	-7275
iasan	-7276
irusa	-7277
▁laph	-7278
▁yesé	-7279
▁tropi	-7280
▁kollun	-7281
▁aaronan	-7282
▁ukawjan	-7283
▁urunsti	-7284
araquïtam	-7285
▁carronac	-7286
▁jakonucu	-7287
▁kallunac	-7288
▁noticias	-7289
▁superior	-7290
▁anochecer	-7291
▁comandante	-7292
▁diosanacaru	-7293
dito	-7294
▁cis	-7295
iende	-7296
istió	-7297
▁clav	-7298
▁llan	-7299
▁vasi	-7300
apkitu	-7301
asinsa	-7302
itaspa	-7303
tantes	-7304
äwipan	-7305
▁escri	-7306
▁hered	-7307
▁muyun	-7308
▁prend	-7309
▁uchañ	-7310
▁ukawj	-7311
▁wajch	-7312
▁yatek	-7313
apanjja	-7314
▁bosque	-7315
▁invita	-7316
▁jueces	-7317
▁necios	-7318
▁pankar	-7319
▁traído	-7320
▁iyawsir	-7321
▁luratat	-7322
▁mediter	-7323
▁rebaños	-7324
▁apthapiñ	-7325
▁ayllunak	-7326
▁lágrimas	-7327
asipjjänwa	-7328
▁agradable	-7329
▁acompañado	-7330
▁kawkharutix	-7331
▁mediterráneo	-7332
▁alajjpachanquir	-7333
ipt	-7334
nuq	-7335
erás	-7336
äpasa	-7337
▁samc	-7338
aremos	-7339
inadab	-7340
quïnwa	-7341
▁churk	-7342
▁orien	-7343
▁uruwa	-7344
▁ananuk	-7345
▁conced	-7346
▁quisiera	-7347
▁ukanakar	-7348
dio	-7349
uél	-7350
imón	-7351
vent	-7352
äkis	-7353
▁lea	-7354
▁nun	-7355
ayitu	-7356
iñäni	-7357
▁seca	-7358
▁empez	-7359
▁sigan	-7360
▁uywan	-7361
jjarojj	-7362
▁juchar	-7363
▁marcha	-7364
▁micaía	-7365
▁siglos	-7366
▁sufrir	-7367
▁tomado	-7368
anacamsa	-7369
▁cumplan	-7370
▁jupatak	-7371
▁khithan	-7372
cunatarac	-7373
▁diosarux	-7374
▁mentiras	-7375
▁santific	-7376
▁wiñayawa	-7377
▁quisieron	-7378
▁tributjja	-7379
▁kunanaktix	-7380
▁regresaron	-7381
▁pampachatäñ	-7382
▁jakenacarusti	-7383
amán	-7384
tayi	-7385
asawa	-7386
▁humo	-7387
▁sell	-7388
▁trai	-7389
ankask	-7390
ipkäna	-7391
▁atipt	-7392
▁ewjja	-7393
▁reyiw	-7394
apatjja	-7395
▁jaketa	-7396
anacaman	-7397
▁comunic	-7398
▁lurarap	-7399
▁numeros	-7400
▁diosapar	-7401
▁quedarse	-7402
▁sartaway	-7403
▁supieron	-7404
▁nayrakatanjja	-7405
ign	-7406
allt	-7407
äwit	-7408
▁arp	-7409
▁cop	-7410
▁ñiq	-7411
apsti	-7412
cinco	-7413
icios	-7414
tejja	-7415
▁ajim	-7416
▁amig	-7417
▁arpa	-7418
▁asdo	-7419
▁cabr	-7420
▁cans	-7421
▁lurki	-7422
▁ofrec	-7423
▁parli	-7424
▁punto	-7425
▁qhant	-7426
▁saulo	-7427
apampix	-7428
aquerib	-7429
▁cawqha	-7430
▁convir	-7431
▁crecer	-7432
▁parljj	-7433
▁salgan	-7434
▁tantos	-7435
▁amonita	-7436
▁bernabe	-7437
▁colinas	-7438
▁jezreel	-7439
▁nayrajj	-7440
▁paganos	-7441
▁pondrán	-7442
▁seguido	-7443
▁yuqapan	-7444
jjapjjani	-7445
qhititejj	-7446
▁contaron	-7447
▁grandeza	-7448
▁iyawsäwi	-7449
▁pariente	-7450
▁utjkänti	-7451
▁chacharux	-7452
▁chekaparu	-7453
▁destruirá	-7454
▁cunapachas	-7455
▁kunapachas	-7456
kch	-7457
iqhi	-7458
▁esf	-7459
▁int	-7460
ajjan	-7461
garon	-7462
▁azul	-7463
▁pase	-7464
▁tron	-7465
▁grupo	-7466
▁nieto	-7467
▁silas	-7468
▁ucana	-7469
amarjam	-7470
▁reyipa	-7471
▁incluso	-7472
▁jakañax	-7473
▁reyinakan	-7474
▁destruidos	-7475
íb	-7476
amo	-7477
dós	-7478
mur	-7479
▁sú	-7480
cchi	-7481
▁poc	-7482
▁ull	-7483
achay	-7484
▁cuyo	-7485
▁fama	-7486
▁juro	-7487
▁lokh	-7488
▁luqh	-7489
▁unas	-7490
▁usun	-7491
ancasc	-7492
erador	-7493
pjjaru	-7494
ventud	-7495
▁asdod	-7496
▁enojó	-7497
▁llakt	-7498
▁pacha	-7499
▁ponga	-7500
▁prove	-7501
▁rollo	-7502
▁viejo	-7503
tatituw	-7504
xarusti	-7505
▁cultiv	-7506
▁destro	-7507
▁espera	-7508
▁lurapc	-7509
▁mesías	-7510
▁alturas	-7511
▁espalda	-7512
▁jawsäna	-7513
▁llamada	-7514
▁mayipjj	-7515
▁pasaron	-7516
▁propias	-7517
▁taypiru	-7518
▁vivirán	-7519
ajjataqui	-7520
▁chekpach	-7521
▁decirles	-7522
▁isinacap	-7523
▁jumatejj	-7524
▁juventud	-7525
▁levantar	-7526
▁sucedido	-7527
▁cadáveres	-7528
▁veintidós	-7529
▁luratanakam	-7530
▁veinticinco	-7531
oka	-7532
pes	-7533
▁suj	-7534
endor	-7535
▁quic	-7536
apatak	-7537
▁ecrón	-7538
▁pilar	-7539
▁arsupx	-7540
▁añadió	-7541
▁leones	-7542
▁ucjjar	-7543
▁ukatxa	-7544
aparusti	-7545
▁cuentas	-7546
▁kutikip	-7547
▁phajjsi	-7548
▁posible	-7549
▁thaquin	-7550
▁laykusti	-7551
asiñataqui	-7552
▁espíritus	-7553
▁macedonia	-7554
▁markanakap	-7555
▁sarnakäwip	-7556
cida	-7557
iene	-7558
▁cum	-7559
acion	-7560
asisc	-7561
aspan	-7562
rones	-7563
▁deje	-7564
▁khur	-7565
▁pelo	-7566
▁uman	-7567
▁viña	-7568
diosan	-7569
▁albor	-7570
▁dirás	-7571
▁discu	-7572
▁gritó	-7573
▁jonás	-7574
▁jutam	-7575
▁occid	-7576
▁oeste	-7577
▁patan	-7578
▁salía	-7579
▁tukur	-7580
cientas	-7581
▁degoll	-7582
▁mathap	-7583
▁reyita	-7584
▁nazaret	-7585
▁parecía	-7586
▁pedrojj	-7587
▁sutinak	-7588
▁thakhin	-7589
anacampiw	-7590
añapäkiti	-7591
▁asquinac	-7592
▁decidido	-7593
▁orakeruw	-7594
▁emperador	-7595
▁occidente	-7596
▁ofrecerán	-7597
▁panpachan	-7598
▁verdadero	-7599
▁iyawsirinac	-7600
tax	-7601
asita	-7602
▁thur	-7603
dición	-7604
upxäna	-7605
ïspawa	-7606
▁darán	-7607
▁perka	-7608
▁sijón	-7609
ukampis	-7610
▁adonde	-7611
▁siendo	-7612
▁dominio	-7613
▁extremo	-7614
▁jiwayat	-7615
▁wachoka	-7616
▁lurasïna	-7617
▁markanaka	-7618
▁encontrado	-7619
▁presentaron	-7620
▁ás	-7621
añar	-7622
itud	-7623
oruw	-7624
▁mic	-7625
▁ñek	-7626
ctati	-7627
david	-7628
ipkta	-7629
jaron	-7630
losti	-7631
▁chap	-7632
apktam	-7633
añatac	-7634
thapis	-7635
uraqui	-7636
äcänti	-7637
▁awkim	-7638
▁canas	-7639
▁inmor	-7640
▁jacht	-7641
▁khesp	-7642
▁tayna	-7643
▁yapup	-7644
▁firmes	-7645
▁honrar	-7646
▁jezrel	-7647
▁langos	-7648
▁llevan	-7649
▁thiyan	-7650
▁verlos	-7651
apkaniti	-7652
asipkäna	-7653
▁conspir	-7654
▁hermosa	-7655
▁joaquín	-7656
▁diosapax	-7657
▁jacañajj	-7658
▁amtäwinac	-7659
▁chachänwa	-7660
▁diosajjay	-7661
▁perseguir	-7662
▁jaquirinac	-7663
▁reconstruy	-7664
▁ucanacarojja	-7665
má	-7666
▁rin	-7667
▁yan	-7668
onaka	-7669
▁corn	-7670
▁rend	-7671
kirist	-7672
▁carre	-7673
▁walsa	-7674
▁antutt	-7675
▁lurask	-7676
▁maranï	-7677
▁ocasión	-7678
▁tiendas	-7679
▁bautismo	-7680
añatakisti	-7681
▁sarasinjja	-7682
▁jakenacatejj	-7683
th	-7684
aía	-7685
▁sos	-7686
apäna	-7687
caron	-7688
iritu	-7689
itäna	-7690
urojj	-7691
▁asia	-7692
▁janq	-7693
▁olor	-7694
▁tupu	-7695
▁waxr	-7696
apkama	-7697
orusti	-7698
urakiw	-7699
▁jamat	-7700
▁peste	-7701
▁qhipa	-7702
▁solem	-7703
▁tukut	-7704
▁uscus	-7705
ochupjj	-7706
▁amuyun	-7707
▁arumaw	-7708
▁chhaqh	-7709
▁seguro	-7710
▁uñstay	-7711
anacapas	-7712
▁amorreo	-7713
▁disfrut	-7714
▁jiwxäna	-7715
▁mayordo	-7716
▁peligro	-7717
▁sasajja	-7718
▁jacobojj	-7719
▁kamachip	-7720
▁muncänti	-7721
▁visiones	-7722
▁yatiñani	-7723
▁espadampi	-7724
▁quinientos	-7725
▁senaquerib	-7726
▁sirvientes	-7727
irus	-7728
ïnti	-7729
atrio	-7730
tiles	-7731
▁cobr	-7732
▁fino	-7733
▁vara	-7734
cjjänti	-7735
▁cruzar	-7736
▁nanacar	-7737
▁querido	-7738
janipuniw	-7739
▁encontra	-7740
▁impuesto	-7741
▁compatrio	-7742
▁esplendor	-7743
▁siscatayna	-7744
▁marcanacajj	-7745
▁cawqharutejj	-7746
cs	-7747
cot	-7748
eré	-7749
álv	-7750
baal	-7751
ebre	-7752
escu	-7753
sara	-7754
yäta	-7755
▁iré	-7756
▁jat	-7757
▁roc	-7758
itaki	-7759
kipan	-7760
▁acud	-7761
▁diec	-7762
▁elev	-7763
▁imañ	-7764
▁impu	-7765
▁opon	-7766
▁sorp	-7767
entado	-7768
tatitu	-7769
▁caerá	-7770
▁jacas	-7771
▁thayt	-7772
amañcht	-7773
apjjäma	-7774
atamata	-7775
onacaru	-7776
▁bastón	-7777
▁nayrax	-7778
▁repres	-7779
▁tuqiru	-7780
▁vuelva	-7781
asiñatak	-7782
cawquïri	-7783
▁gomorra	-7784
▁hiciera	-7785
▁qhitisa	-7786
▁últimos	-7787
▁arumasti	-7788
▁escribió	-7789
▁kankañam	-7790
▁abrahaman	-7791
▁descansar	-7792
▁partieron	-7793
▁wawanakax	-7794
anacaparojj	-7795
jumanacasti	-7796
▁prostituta	-7797
▁reconocerán	-7798
▁yaqhipanakax	-7799
▁ic	-7800
iten	-7801
cción	-7802
▁oyen	-7803
atamat	-7804
▁cadés	-7805
▁detes	-7806
▁grani	-7807
▁kunäk	-7808
anakapa	-7809
istajja	-7810
▁ajayux	-7811
▁jesbón	-7812
▁loktat	-7813
▁pusini	-7814
▁yatipc	-7815
▁bernabé	-7816
▁cristox	-7817
▁jaqiruw	-7818
▁pablojj	-7819
▁isinakap	-7820
▁pequeños	-7821
▁utjcänti	-7822
▁awkinakap	-7823
▁diosamajj	-7824
▁oraciones	-7825
▁alajjpachat	-7826
▁ukhamarjamaw	-7827
▁nuwasiñataqui	-7828
▁cl	-7829
atas	-7830
elas	-7831
enci	-7832
▁bil	-7833
▁hom	-7834
▁naj	-7835
akïpx	-7836
unaka	-7837
▁inak	-7838
▁lurä	-7839
▁orar	-7840
▁susa	-7841
apunim	-7842
ispawa	-7843
ándose	-7844
äkänti	-7845
▁amuct	-7846
▁aycha	-7847
▁decid	-7848
▁hemán	-7849
▁metal	-7850
▁parlt	-7851
▁saqué	-7852
▁sucot	-7853
▁uzías	-7854
▁uñjay	-7855
▁wajjt	-7856
äñapawa	-7857
▁afuera	-7858
▁hacían	-7859
▁impure	-7860
▁katxäs	-7861
▁sirven	-7862
▁axsarir	-7863
▁churäma	-7864
▁límites	-7865
▁rebelde	-7866
▁taypita	-7867
▁jilarkir	-7868
▁phaxsina	-7869
▁sexuales	-7870
▁taypiruw	-7871
▁terrible	-7872
▁trabajos	-7873
▁cimientos	-7874
▁ordenanzas	-7875
▁jumanakatak	-7876
▁quimsakallko	-7877
aptay	-7878
kätati	-7879
nanakax	-7880
▁altura	-7881
▁maynic	-7882
▁pheskan	-7883
asisinjja	-7884
jjepansti	-7885
umaraptay	-7886
▁apanucut	-7887
▁chekapar	-7888
▁bendicion	-7889
▁thaquinjam	-7890
▁wawanacapan	-7891
aun	-7892
äsk	-7893
▁vir	-7894
aqham	-7895
▁adon	-7896
▁flor	-7897
▁nego	-7898
anitas	-7899
aparus	-7900
▁calle	-7901
▁estan	-7902
▁estru	-7903
▁opres	-7904
▁oseas	-7905
▁sello	-7906
▁ucawa	-7907
▁alegre	-7908
▁grupos	-7909
▁laquis	-7910
nosotros	-7911
▁amtäwip	-7912
▁anciano	-7913
▁axsaray	-7914
▁cayeron	-7915
▁dispers	-7916
▁hititas	-7917
▁jiwatap	-7918
▁paypach	-7919
▁sacaron	-7920
▁yatjjat	-7921
jerusalén	-7922
▁contribu	-7923
▁diosamar	-7924
▁diosamaw	-7925
▁espiritu	-7926
▁madianit	-7927
▁obedecen	-7928
▁sapjjäna	-7929
▁luratänwa	-7930
▁walipuniw	-7931
▁yatisinxa	-7932
▁tatitutaqui	-7933
▁utjnuqtapxäna	-7934
att	-7935
fir	-7936
aqat	-7937
jjäs	-7938
a	-7939
▁	-7940
e	-7941
i	-7942
s	-7943
n	-7944
u	-7945
t	-7946
r	-7947
o	-7948
c	-7949
j	-7950
l	-7951
p	-7952
m	-7953
d	-7954
k	-7955
h	-7956
y	-7957
,	-7958
q	-7959
w	-7960
.	-7961
b	-7962
x	-7963
ä	-7964
ñ	-7965
'	-7966
g	-7967
v	-7968
í	-7969
á	-7970
f	-7971
ó	-7972
ï	-7973
"	-7974
é	-7975
:	-7976
z	-7977
;	-7978
-	-7979
¡	-7980
!	-7981
ú	-7982
¿	-7983
?	-7984
ü	-7985
ë	-7986
ö	-7987
)	-7988
(	-7989
[	-7990
]	-7991
1	-7992
0	-7993
4	-7994
7	-7995
